{"<|endoftext|>":0,"!":1,"\"":2,"#":3,"$":4,"%":5,"&":6,"'":7,"(":8,")":9,"*":10,"+":11,",":12,"-":13,".":14,"/":15,"0":16,"1":17,"2":18,"3":19,"4":20,"5":21,"6":22,"7":23,"8":24,"9":25,":":26,";":27,"<":28,"=":29,">":30,"?":31,"@":32,"A":33,"B":34,"C":35,"D":36,"E":37,"F":38,"G":39,"H":40,"I":41,"J":42,"K":43,"L":44,"M":45,"N":46,"O":47,"P":48,"Q":49,"R":50,"S":51,"T":52,"U":53,"V":54,"W":55,"X":56,"Y":57,"Z":58,"[":59,"\\":60,"]":61,"^":62,"_":63,"`":64,"a":65,"b":66,"c":67,"d":68,"e":69,"f":70,"g":71,"h":72,"i":73,"j":74,"k":75,"l":76,"m":77,"n":78,"o":79,"p":80,"q":81,"r":82,"s":83,"t":84,"u":85,"v":86,"w":87,"x":88,"y":89,"z":90,"{":91,"|":92,"}":93,"~":94,"¡":95,"¢":96,"£":97,"¤":98,"¥":99,"¦":100,"§":101,"¨":102,"©":103,"ª":104,"«":105,"¬":106,"®":107,"¯":108,"°":109,"±":110,"²":111,"³":112,"´":113,"µ":114,"¶":115,"·":116,"¸":117,"¹":118,"º":119,"»":120,"¼":121,"½":122,"¾":123,"¿":124,"À":125,"Á":126,"Â":127,"Ã":128,"Ä":129,"Å":130,"Æ":131,"Ç":132,"È":133,"É":134,"Ê":135,"Ë":136,"Ì":137,"Í":138,"Î":139,"Ï":140,"Ð":141,"Ñ":142,"Ò":143,"Ó":144,"Ô":145,"Õ":146,"Ö":147,"×":148,"Ø":149,"Ù":150,"Ú":151,"Û":152,"Ü":153,"Ý":154,"Þ":155,"ß":156,"à":157,"á":158,"â":159,"ã":160,"ä":161,"å":162,"æ":163,"ç":164,"è":165,"é":166,"ê":167,"ë":168,"ì":169,"í":170,"î":171,"ï":172,"ð":173,"ñ":174,"ò":175,"ó":176,"ô":177,"õ":178,"ö":179,"÷":180,"ø":181,"ù":182,"ú":183,"û":184,"ü":185,"ý":186,"þ":187,"ÿ":188,"Ā":189,"ā":190,"Ă":191,"ă":192,"Ą":193,"ą":194,"Ć":195,"ć":196,"Ĉ":197,"ĉ":198,"Ċ":199,"ċ":200,"Č":201,"č":202,"Ď":203,"ď":204,"Đ":205,"đ":206,"Ē":207,"ē":208,"Ĕ":209,"ĕ":210,"Ė":211,"ė":212,"Ę":213,"ę":214,"Ě":215,"ě":216,"Ĝ":217,"ĝ":218,"Ğ":219,"ğ":220,"Ġ":221,"ġ":222,"Ģ":223,"ģ":224,"Ĥ":225,"ĥ":226,"Ħ":227,"ħ":228,"Ĩ":229,"ĩ":230,"Ī":231,"ī":232,"Ĭ":233,"ĭ":234,"Į":235,"į":236,"İ":237,"ı":238,"Ĳ":239,"ĳ":240,"Ĵ":241,"ĵ":242,"Ķ":243,"ķ":244,"ĸ":245,"Ĺ":246,"ĺ":247,"Ļ":248,"ļ":249,"Ľ":250,"ľ":251,"Ŀ":252,"ŀ":253,"Ł":254,"ł":255,"Ń":256,"ta":257,"le":258,"po":259,"Ġt":260,"tat":261,"he":262,"nd":263,"er":264,"ce":265,"in":266,"on":267,"as":268,"nder":269,"pta":270,"nderm":271,"Ġr":272,"leas":273,"lepo":274,"cle":275,"ece":276,"elepo":277,"ion":278,"pleas":279,"rtat":280,"underm":281,"Ġpo":282,"Ġunderm":283,"Ġthe":284,"Ġtelepo":285,"tato":286,"ine":287,"ptacle":288,"Ġrece":289,"please":290,"rtation":291,"Ġpotato":292,"Ġundermine":293,"Ġteleportation":294,"Ġreceptacle":295,"the":296,"ha":297,"of":298,"at":299,"me":300,"un":301,"or":302,"ut":303,"ÃĤ":304,"Ãģ":305,"is":306,"it":307,"Â¡":308,"Ãķ":309,"Â²":310,"Â»":311,"ll":312,"Â±":313,"Ãĸ":314,"ow":315,"Â°":316,"Â³":317,"Ã»":318,"Âº":319,"Ã¡":320,"Ã¬":321,"ÃĦ":322,"ÃĨ":323,"ÃĲ":324,"Â¿":325,"Ã°":326,"Âĸ":327,"Â¹":328,"ÂĢ":329,"ÂĪ":330,"Ãĵ":331,"ou":332,"Âħ":333,"ÂĴ":334,"Âľ":335,"Ã®":336,"Ã¯":337,"Ãħ":338,"ÃĬ":339,"Ãĺ":340,"Âģ":341,"ÂĽ":342,"Ã´":343,"Ãĥ":344,"Â®":345,"Â¶":346,"ÂĨ":347,"Âĭ":348,"ed":349,"Â£":350,"Â¸":351,"Â¼":352,"ÂĻ":353,"Ã½":354,"Ãĩ":355,"Â¦":356,"ÂĲ":357,"Âĵ":358,"Ãª":359,"Ã·":360,"Ã¼":361,"Ãĭ":362,"ÃĮ":363,"Âı":364,"Ã«":365,"Ãº":366,"Â¨":367,"Â©":368,"Âĥ":369,"Âĳ":370,"ÂĶ":371,"Âŀ":372,"Ã¥":373,"Ãİ":374,"Ãľ":375,"ÃŃ":376,"Â§":377,"Â·":378,"Â¾":379,"Âİ":380,"Ã¾":381,"ÃĻ":382,"Ãŀ":383,"Âī":384,"Ãı":385,"Ãĳ":386,"Ã¨":387,"Ã³":388,"Ã¸":389,"ÃĢ":390,"Â¢":391,"Â¬":392,"Ã¦":393,"Ã¶":394,"Ã¹":395,"ÃĹ":396,"Âł":397,"Ã±":398,"ÃĪ":399,"Ãł":400,"ÂĤ":401,"Âĩ":402,"ÂĹ":403,"Ã§":404,"Ã©":405,"Ãī":406,"ÃĿ":407,"my":408,"Ã¤":409,"Ãļ":410,"Ãį":411,"ÃĶ":412,"tha":413,"Â´":414,"Âµ":415,"ÂŁ":416,"Ãµ":417,"Â¤":418,"Âª":419,"Ã²":420,"Â«":421,"ÂĬ":422,"Âį":423,"Âļ":424,"ÃĽ":425,"ers":426,"Ã¢":427,"ÃĴ":428,"Â¯":429,"Ã¿":430,"Â¥":431,"Âĺ":432,"Ã£":433,"ÃŁ":434,"Â½":435,"ÂĦ":436,"cha":437,"ÂĿ":438,"men":439,"ra":440,"ÂĮ":441,"om":442,"nce":443,"ye":444,"Âķ":445,"ÂŃ":446,"ind":447,"ace":448,"bl":449,"ar":450,"sha":451,"ate":452,"ars":453,"oul":454,"pole":455,"soul":456,"te":457,"no":458,"od":459,"not":460,"cr":461,"am":462,"and":463,"but":464,"fe":465,"Under":466,"apta":467,"capta":468,"fell":469,"captain":470,"st":471,"that":472,"how":473,"ts":474,"ters":475,"rait":476,"co":477,"find":478,"vers":479,"strait":480,"wit":481,"atters":482,"chance":483,"hmen":484,"matters":485,"pun":486,"thethe":487,"ishmen":488,"covers":489,"punishmen":490,"punishments":491,"For":492,"with":493,"dg":494,"fr":495,"from":496,"nk":497,"ve":498,"ofthe":499,"thank":500,"menace":501,"Lo":502,"ged":503,"rged":504,"charged":505,"oms":506,"Looms":507,"ay":508,"eon":509,"udg":510,"ing":511,"years":512,"bludg":513,"eoning":514,"bludgeoning":515,"And":516,"Be":517,"cu":518,"gate":519,"may":520,"ond":521,"rat":522,"yond":523,"Beyond":524,"rath":525,"ad":526,"ci":527,"cl":528,"de":529,"ms":530,"rcu":531,"wrath":532,"tance":533,"have":534,"rai":535,"shall":536,"bludgeonings":537,"circu":538,"clut":539,"mstance":540,"circumstance":541,"af":542,"gh":543,"his":544,"igh":545,"lou":546,"nor":547,"ood":548,"unaf":549,"blood":550,"shade":551,"raid":552,"loud":553,"unafraid":554,"bloody":555,"It":556,"fate":557,"nigh":558,"yet":559,"clutc":560,"My":561,"aloud":562,"lace":563,"place":564,"wha":565,"tears":566,"clutch":567,"whate":568,"In":569,"Out":570,"ied":571,"cried":572,"night":573,"Bl":574,"How":575,"ac":576,"be":577,"ver":578,"whatever":579,"Blac":580,"Black":581,"bow":582,"qu":583,"this":584,"head":585,"unbow":586,"ods":587,"unbowed":588,"Find":589,"ab":590,"con":591,"gods":592,"erab":593,"uncon":594,"querab":595,"Finds":596,"unconquerab":597,"unconquerable":598,"mas":599,"to":600,"Hor":601,"ror":602,"Horror":603,"pit":604,"oll":605,"ter":606,"croll":607,"master":608,"win":609,"ced":610,"winced":611,"scroll":612,"theof":613,"ofof":614,"Ithe":615,"ofand":616,"bu":617,"tand":618,"themy":619,"thepole":620,"II":621,"Iof":622,"thenot":623,"theyet":624,"tam":625,"theshade":626,"ofI":627,"wraththe":628,"Ou":629,"ofcaptain":630,"ofBeyond":631,"amthe":632,"Forthe":633,"thankthe":634,"asthe":635,"theI":636,"theis":637,"thesoul":638,"thehow":639,"thepunishments":640,"theLooms":641,"thebloody":642,"theIn":643,"ofsoul":644,"howthe":645,"withof":646,"maythe":647,"themenace":648,"thead":649,"thewrath":650,"ofme":651,"ofnot":652,"offind":653,"ofthank":654,"ofshall":655,"methe":656,"andof":657,"chancethe":658,"headthe":659,"=Ă":660,">ă":661,"`Ĉ":662,"bÃĦ":663,"kN":664,"qP":665,"ug":666,"yÂº":667,"}Â£":668,"ĕ#":669,"Ė\\":670,"ė&":671,"Ğĕ":672,"ĞÂ§":673,"ĠB":674,"theUnder":675,"thefell":676,"thefind":677,"theFor":678,"thegate":679,"thenor":680,"ofmy":681,"ofbut":682,"ofUnder":683,"offrom":684,"ofyears":685,"ofhave":686,"ofunafraid":687,"meof":688,"Â¡Âĳ":689,"ÂĴÂĥ":690,"Â®ÂĨ":691,"ÃĮÃĽ":692,"ÃİI":693,"ÂīÂŁ":694,"Ã¸d":695,"Ã¦d":696,"ÃĪW":697,"mymatters":698,"Ã²R":699,"Ã£ÃĶ":700,"Âķē":701,"amof":702,"butof":703,"fellthe":704,"coversthe":705,"yearsthe":706,"Andof":707,"Andmy":708,"circumstanceand":709,"norI":710,"clutchI":711,"headI":712,"!=":713,"\"Â±":714,"#{":715,"'Â°":716,")Â¸":717,")ÃĹ":718,"*Ė":719,"-)":720,".Ę":721,".ÂĢ":722,"/ÂĽ":723,"11":724,"91":725,";Ĉ":726,"<:":727,"<Âı":728,">Ď":729,"?Âĵ":730,"@)":731,"@}":732,"@Ď":733,"@Ã·":734,"BL":735,"Bg":736,"ES":737,"Fr":738,"GÃħ":739,"GÃµ":740,"HB":741,"HC":742,"Iy":743,"IÃ½":744,"IÃİ":745,"Imy":746,"Iam":747,"Iand":748,"ILooms":749,"Iunbowed":750,"JÃķ":751,"JÃ¶":752,"KÂª":753,"Lw":754,"OJ":755,"Om":756,"PÃ¶":757,"PÃĶ":758,"QÃħ":759,"QÃĿ":760,"Ro":761,"Ry":762,"RÃĸ":763,"SX":764,"SÃ¦":765,"TÃ¬":766,"Underm":767,"Vm":768,"WM":769,"WZ":770,"WÃĩ":771,"Zw":772,"ZÃª":773,"[ÃĹ":774,"\\ą":775,"]Â°":776,"]ÂĲ":777,"^ÃĹ":778,"`Â¬":779,"aÃĤ":780,"aÃª":781,"cg":782,"cÃ±":783,"eÃķ":784,"hq":785,"hy":786,"jÃ¡":787,"ko":788,"lÃ¥":789,"lÃ§":790,"oÃŀ":791,"pi":792,"pÃĸ":793,"pÃĶ":794,"qg":795,"qÃ«":796,"qÃ¨":797,"tY":798,"ton":799,"tÃĥ":800,"vs":801,"vÃ¡":802,"wÃ½":803,"wÃĩ":804,"xZ":805,"xÃĨ":806,"yÃł":807,"zF":808,"zÃ¯":809,"{%":810,"{Âĸ":811,"{Â¤":812,"|%":813,"|Ğ":814,"}}":815,"}đ":816,"~Â£":817,"āÂĻ":818,"Ą)":819,"Ąć":820,"ąÂĲ":821,"ĆĐ":822,"ĆÂĻ":823,"ć<":824,"Ĉ%":825,"ĈÂ¡":826,"ďÂ¡":827,"đ%":828,"ĘÂ¸":829,"Ğ-":830,"ĞÂ·":831,"ğ-":832,"ğÃ·":833,"ĠÃ¡":834,"ġĖ":835,"tas":836,"theand":837,"thethat":838,"thewith":839,"thethank":840,"thecharged":841,"theyears":842,"theIt":843,"thefate":844,"theplace":845,"thetears":846,"theHow":847,"thebe":848,"theBlack":849,"theunconquerable":850,"theto":851,"ofis":852,"ofchance":853,"ofmenace":854,"ofcharged":855,"ofbludgeonings":856,"ofbloody":857,"ofunconquerable":858,"ÃĤA":859,"ÃĤI":860,"ÃĤÃī":861,"Ãķl":862,"Ãķm":863,"Â»~":864,"Â±^":865,"Â±ą":866,"Â±Â£":867,"Â³6":868,"ÂºS":869,"ÂºÃĥ":870,"ÂºÃº":871,"ÂºÃ¤":872,"Ã¡Ãı":873,"Ã¡Ã§":874,"Ã¡Âµ":875,"Ã¬r":876,"Ã¬Ã±":877,"ÃĦc":878,"ÃĦÃļ":879,"ÃĨÃ¨":880,"ÃĲO":881,"Â¿Ď":882,"ÂĢĎ":883,"ÂĪÂ¯":884,"ÃĵÃĵ":885,"ÃĵÃı":886,"ÂĴ#":887,"ÂĴĕ":888,"ÂĴÂ¶":889,"ÂľÂĤ":890,"Ã®Ãĸ":891,"Ã®Ãº":892,"ÃĺÃķ":893,"Âģ?":894,"ÂģÂģ":895,"ÂĽÂĪ":896,"Ã´Ã¦":897,"Â®Ă":898,"Â®Â«":899,"Â¶^":900,"Âĭ[":901,"ÂĭĖ":902,"ÂĭÂ·":903,"Â¸Ĝ":904,"ÂĻÂŀ":905,"ÃĩC":906,"ÂĵĄ":907,"ÃªÃĽ":908,"Ã·[":909,"ÃĭR":910,"ÃĭÃĲ":911,"ÃĮÃµ":912,"ÂıÂ´":913,"ÃºH":914,"Â¨\\":915,"Â©ď":916,"Âĥ#":917,"Âĥ>":918,"ÂĥÂĥ":919,"ÂĳÂī":920,"ÂĳÂĬ":921,"ÂĳÂ¯":922,"ÂĶÂ®":923,"ÂĶÂ§":924,"Ã¥ÃĨ":925,"ÃŃD":926,"ÃŃt":927,"ÃŃÃ¬":928,"Â§Âĩ":929,"ÂİÂĺ":930,"Ã¾Ãİ":931,"Ã¾Ã¶":932,"ÃŀÃľ":933,"ÂīÂ»":934,"Ãıi":935,"ÃĳL":936,"ÃĳY":937,"ÃĳÃ¶":938,"ÃĳÃŁ":939,"Ã¸C":940,"Ã¸i":941,"Ã¸v":942,"Â¬&":943,"ÃĹ!":944,"Ã±u":945,"ÂĤÂľ":946,"ÂĤÂĭ":947,"ÂĩĂ":948,"ÂĩÂ¤":949,"Ã©z":950,"myfell":951,"myfind":952,"ÃļÃ¨":953,"ÃįÃ®":954,"ÃĶu":955,"thave":956,"Â´Âķ":957,"ÃµÂº":958,"Â¤(":959,"Âªw":960,"Â«ė":961,"Â«Â¨":962,"Â«Âĳ":963,"ÂĬ@":964,"Ã¿Ã´":965,"Ã£ÃĤ":966,"ÃŁU":967,"ÂĦ\\":968,"ÂĦÂ¶":969,"ÂĿ{":970,"ÂķĔ":971,"notand":972,"notam":973,"notthe":974,"notstrait":975,"amunconquerable":976,"andnight":977,"butnot":978,"Undernot":979,"captainthe":980,"thatme":981,"tscroll":982,"findfind":983,"straitof":984,"chanceof":985,"thethegate":986,"thetheunafraid":987,"thethegods":988,"punishmentsAnd":989,"punishmentsnor":990,"Forof":991,"thankhave":992,"wrathof":993,"havethe":994,"bludgeoningsof":995,"bludgeoningsUnder":996,"Ithis":997,"yetof":998,"tearsthe":999,"tearsme":1000,"tearsplace":1001,"Outmay":1002,"criedthe":1003,"Howyet":1004,"Blackof":1005,"thisI":1006,"godsthe":1007,"unconquerablebloody":1008,"Horrorof":1009,"pitthe":1010,"butand":1011,"Undermy":1012,"!ę":1013,"!ÂĴ":1014,"!Â¦":1015,"!Âį":1016,"\"&":1017,"\")":1018,"\">":1019,"\"đ":1020,"\"ē":1021,"\"Ě":1022,"\"ğ":1023,"\"Â¢":1024,"#(":1025,"#?":1026,"#\\":1027,"#ă":1028,"#Ď":1029,"#Ē":1030,"#Â®":1031,"#ÂĻ":1032,"#Â¦":1033,"#Â§":1034,"#Âĩ":1035,"$Â¯":1036,"$ÂĿ":1037,"%!":1038,"%(":1039,"%+":1040,"%]":1041,"%^":1042,"%ć":1043,"%Ĉ":1044,"%ę":1045,"%ě":1046,"%ÂĤ":1047,"&ă":1048,"&Â¶":1049,"&Âī":1050,"&ÃĹ":1051,"'^":1052,"'Âı":1053,"'Â´":1054,"(:":1055,"(_":1056,"(ą":1057,"(Âĥ":1058,"(Âĩ":1059,")#":1060,")_":1061,")đ":1062,")ė":1063,")Â¡":1064,")Âĸ":1065,")ÂĻ":1066,")ÂĿ":1067,"**":1068,"*ą":1069,"*ć":1070,"*ÂĨ":1071,"*Âİ":1072,"*Â¯":1073,"+>":1074,"+`":1075,"+Ď":1076,"+Ğ":1077,"+Â®":1078,"+ÂĤ":1079,"+Âį":1080,",:":1081,",>":1082,",]":1083,",ā":1084,",Ă":1085,",đ":1086,",Â°":1087,",ÂĨ":1088,",Âĵ":1089,",ÂĦ":1090,"->":1091,"-_":1092,"-ĕ":1093,"-Â»":1094,"-Â¶":1095,"-ÂĻ":1096,"-Â§":1097,"-Âİ":1098,"-Â«":1099,".\\":1100,".ć":1101,".ď":1102,".ě":1103,".Âī":1104,".Â¢":1105,".ÂŁ":1106,".ÂĦ":1107,"/)":1108,"/ĕ":1109,"/ÂĨ":1110,"/Â¸":1111,"/Ã·":1112,"/ÂĶ":1113,"/Â¬":1114,"01":1115,"07":1116,"0Â²":1117,"0Â¾":1118,"10":1119,"2Â¹":1120,"2Â¼":1121,"36":1122,"58":1123,"6Â½":1124,"77":1125,"7Â¾":1126,"8Â¼":1127,"9Â³":1128,":%":1129,":>":1130,":`":1131,":Đ":1132,":Ğ":1133,":ÂĨ":1134,":Â§":1135,":Â¤":1136,";!":1137,";.":1138,";|":1139,";ć":1140,";Ě":1141,";Â¿":1142,";Â·":1143,"<?":1144,"<{":1145,"<~":1146,"<đ":1147,"<Â±":1148,"<ÂĴ":1149,"<Â¶":1150,"=!":1151,"=.":1152,"=|":1153,"=Â»":1154,"=Ã·":1155,"=ÂĤ":1156,">#":1157,">{":1158,">ĕ":1159,">Â¿":1160,">ÂĢ":1161,">Â¶":1162,">Â¨":1163,">ÂĶ":1164,"?ĕ":1165,"?ÂĢ":1166,"?Â¦":1167,"@!":1168,"@,":1169,"@ě":1170,"@Âĭ":1171,"@Â£":1172,"@Â¨":1173,"@Âŀ":1174,"AI":1175,"AN":1176,"AZ":1177,"Ae":1178,"Ap":1179,"Ar":1180,"AÃĤ":1181,"AÃĦ":1182,"AÃĲ":1183,"AÃ°":1184,"AÃ«":1185,"AÃĪ":1186,"AÃĽ":1187,"BÃĨ":1188,"BÃ¯":1189,"BÃĮ":1190,"BÃ«":1191,"CD":1192,"Cz":1193,"CÃĤ":1194,"CÃ¨":1195,"CÃ©":1196,"DD":1197,"DZ":1198,"Dh":1199,"Dq":1200,"Dt":1201,"DÃ»":1202,"DÂº":1203,"DÃ®":1204,"DÃĬ":1205,"DÃĺ":1206,"DÃ´":1207,"DÃİ":1208,"DÃ¨":1209,"DÃĪ":1210,"DÃį":1211,"EH":1212,"Ec":1213,"EÃĤ":1214,"EÃľ":1215,"EÃĳ":1216,"EÃĴ":1217,"FH":1218,"FÃĨ":1219,"FÃ¯":1220,"FÃ´":1221,"FÃľ":1222,"FÃŃ":1223,"FÃł":1224,"GE":1225,"GL":1226,"GU":1227,"Gp":1228,"HZ":1229,"HÃĬ":1230,"HÃ½":1231,"HÃ¹":1232,"HÃ±":1233,"HÂµ":1234,"IV":1235,"Iu":1236,"Iis":1237,"IÃĩ":1238,"IÃ¶":1239,"IÃµ":1240,"Ibut":1241,"IUnder":1242,"Ihow":1243,"Ichance":1244,"Imatters":1245,"Iofthe":1246,"Igate":1247,"IIt":1248,"IMy":1249,"IOut":1250,"JA":1251,"JQ":1252,"KF":1253,"KN":1254,"KU":1255,"Kw":1256,"KÃ¡":1257,"KÃĳ":1258,"KÃ¨":1259,"LY":1260,"Lh":1261,"LÃ¬":1262,"LÃĮ":1263,"MU":1264,"MW":1265,"MÃ¨":1266,"MÃĿ":1267,"MÃļ":1268,"MÃ¢":1269,"NQ":1270,"Nf":1271,"Np":1272,"Ns":1273,"Nw":1274,"NÃĢ":1275,"NÃ¶":1276,"NÃ¤":1277,"NÃµ":1278,"NÃ¢":1279,"NÃ£":1280,"OB":1281,"OR":1282,"OÃĤ":1283,"OÃķ":1284,"OÃĩ":1285,"OÃ¹":1286,"OÃ©":1287,"OÂª":1288,"PR":1289,"PX":1290,"Pb":1291,"Pu":1292,"PÃĭ":1293,"PÃĳ":1294,"PÃĢ":1295,"PÃĿ":1296,"PÃ²":1297,"PÃ£":1298,"Qz":1299,"QÃĻ":1300,"RG":1301,"RL":1302,"Re":1303,"Rk":1304,"Rx":1305,"Rz":1306,"RÂº":1307,"RÃ¤":1308,"ST":1309,"SU":1310,"Sh":1311,"Si":1312,"Sl":1313,"Sv":1314,"SÃĮ":1315,"SÃ±":1316,"SÃĶ":1317,"SÂª":1318,"TU":1319,"TZ":1320,"Th":1321,"Ti":1322,"TÃĵ":1323,"TÃ´":1324,"TÃĮ":1325,"TÃĶ":1326,"Ud":1327,"UÃ¡":1328,"UÃĦ":1329,"UÃĲ":1330,"UÃ¼":1331,"Vc":1332,"Vo":1333,"Vq":1334,"VÃĤ":1335,"VÃĮ":1336,"VÃĳ":1337,"VÃĿ":1338,"WX":1339,"Wh":1340,"WÃĺ":1341,"WÃ½":1342,"XI":1343,"Xp":1344,"XÃĦ":1345,"XÃĥ":1346,"XÃ¥":1347,"XÃ¸":1348,"XÃ¶":1349,"XÃ¿":1350,"YS":1351,"YZ":1352,"YÃ¡":1353,"YÃħ":1354,"YÃĬ":1355,"YÃĥ":1356,"YÃĮ":1357,"YÃ§":1358,"Zu":1359,"ZÃģ":1360,"ZÃķ":1361,"ZÃĵ":1362,"ZÃĥ":1363,"ZÃĩ":1364,"[]":1365,"[~":1366,"[Ď":1367,"[ē":1368,"[Ě":1369,"[Âģ":1370,"\\\\":1371,"\\Ď":1372,"\\Ĝ":1373,"\\ÂĪ":1374,"\\Â¶":1375,"\\ÂĲ":1376,"],":1377,"]{":1378,"]đ":1379,"]Ē":1380,"]ğ":1381,"]Â±":1382,"]Â¤":1383,"^!":1384,"^ĝ":1385,"^ÂĴ":1386,"^Âľ":1387,"^Â®":1388,"^ÂĻ":1389,"^ÂĲ":1390,"_'":1391,"_~":1392,"_Ė":1393,"_ė":1394,"_ę":1395,"_Ě":1396,"_ğ":1397,"_Â°":1398,"_Â§":1399,"_ÂŃ":1400,"`!":1401,"`@":1402,"`{":1403,"`Â·":1404,"aF":1405,"aj":1406,"ao":1407,"au":1408,"aÃĲ":1409,"aÃ°":1410,"aÃŀ":1411,"aÃļ":1412,"aÃ²":1413,"bU":1414,"bg":1415,"bj":1416,"by":1417,"bÃģ":1418,"bÃĭ":1419,"bÃº":1420,"bÃī":1421,"bÃ¿":1422,"cÃķ":1423,"cÃĭ":1424,"cÃ«":1425,"cÃ¥":1426,"cÃ¾":1427,"cÃŀ":1428,"cÃ©":1429,"cÃī":1430,"dJ":1431,"dÃ¬":1432,"dÃ¦":1433,"ee":1434,"eq":1435,"et":1436,"eÃĨ":1437,"eÃĵ":1438,"eÃĺ":1439,"eÃ±":1440,"eÃ²":1441,"eÃĴ":1442,"fÃĳ":1443,"fÃ¸":1444,"gY":1445,"gÃĨ":1446,"gÃª":1447,"gÃ¥":1448,"gÃł":1449,"gÃ¤":1450,"gÃį":1451,"gÃµ":1452,"hQ":1453,"hX":1454,"ht":1455,"hv":1456,"hÃħ":1457,"hÃ¥":1458,"hÃĶ":1459,"hÃĽ":1460,"ic":1461,"iÃ¹":1462,"iÂª":1463,"jJ":1464,"jK":1465,"jW":1466,"jÃķ":1467,"jÃ°":1468,"jÃŃ":1469,"jÃ§":1470,"jqP":1471,"kP":1472,"kÃĭ":1473,"kÃĶ":1474,"lS":1475,"lÃĬ":1476,"lÃ¶":1477,"mV":1478,"mf":1479,"mi":1480,"mÃĬ":1481,"mÃ³":1482,"mÃį":1483,"nV":1484,"na":1485,"nj":1486,"nv":1487,"nÃģ":1488,"nÃ»":1489,"nÃĺ":1490,"nÃ¨":1491,"nÃ±":1492,"nÃ©":1493,"nÃį":1494,"nÃŁ":1495,"oZ":1496,"os":1497,"ot":1498,"oÃĸ":1499,"oÃ°":1500,"oÃĺ":1501,"oÃª":1502,"oÃ±":1503,"oÃĶ":1504,"pE":1505,"px":1506,"pÃł":1507,"qW":1508,"qr":1509,"qÃ½":1510,"rH":1511,"rr":1512,"rz":1513,"rÃĬ":1514,"rÃ§":1515,"sj":1516,"sÃĸ":1517,"sÃĥ":1518,"sÃ¹":1519,"sÃ§":1520,"sÃ£":1521,"tof":1522,"tow":1523,"tÃ»":1524,"tÃľ":1525,"uÃľ":1526,"uÃµ":1527,"vÃĩ":1528,"vÃº":1529,"wO":1530,"wi":1531,"wq":1532,"wÃģ":1533,"wÃĸ":1534,"wÃ°":1535,"wÃĮ":1536,"wÃį":1537,"xj":1538,"xÃĤ":1539,"xÃ¨":1540,"yp":1541,"yu":1542,"yw":1543,"yÃĪ":1544,"zr":1545,"zz":1546,"zÃĦ":1547,"{^":1548,"{Ē":1549,"|)":1550,"|+":1551,"|Ĕ":1552,"|Â±":1553,"|Âľ":1554,"|Âģ":1555,"|ÂĨ":1556,"|ÂĶ":1557,"}'":1558,"}ă":1559,"}Â¿":1560,"}Âģ":1561,"~]":1562,"~~":1563,"~ė":1564,"~Ĝ":1565,"~Ğ":1566,"~Â¬":1567,"ĀÂĴ":1568,"ĀÂĻ":1569,"ĀÃ·":1570,"ĀÂĹ":1571,"ĀÂ´":1572,"ĀÂ¤":1573,"ā;":1574,"ā`":1575,"āĚ":1576,"āÂ»":1577,"āÂ¬":1578,"Ă&":1579,"Ă,":1580,"Ăā":1581,"ĂĈ":1582,"ĂĚ":1583,"ĂÂļ":1584,"ă&":1585,"ă)":1586,"ă,":1587,"ăď":1588,"ăĜ":1589,"ăÂ¡":1590,"ăÂ»":1591,"ăÂĶ":1592,"ăÂĹ":1593,"ĄÂĽ":1594,"ĄÂ´":1595,"ĄÂĦ":1596,"ą`":1597,"ąĜ":1598,"ąÂĴ":1599,"ąÂ¸":1600,"ąÂ©":1601,"ąÂŀ":1602,"ąÂ§":1603,"ąÂ«":1604,"Ć&":1605,"Ć-":1606,"Ć@":1607,"Ćĕ":1608,"ć,":1609,"ć:":1610,"ćĕ":1611,"ćÂ¿":1612,"ćÂ®":1613,"ćÂĻ":1614,"ćÂĲ":1615,"ćÂ¤":1616,"Ĉ(":1617,"Ĉ{":1618,"ĈĎ":1619,"ĈÂ»":1620,"ĈÂ¸":1621,"ĈÂ¤":1622,"ĈÂ¥":1623,"Ď$":1624,"Ď)":1625,"Ď}":1626,"ĎĂ":1627,"ĎĖ":1628,"ĎÂ¶":1629,"ĎÂĶ":1630,"ĎÂĤ":1631,"ď(":1632,"ď>":1633,"ď}":1634,"ďĈ":1635,"ďÂĲ":1636,"ďÂİ":1637,"ďÂĺ":1638,"ĐĔ":1639,"Đě":1640,"ĐÂ®":1641,"ĐÂĵ":1642,"ĐÃ·":1643,"ĐÂ«":1644,"đĖ":1645,"đě":1646,"đÂľ":1647,"đÂĽ":1648,"đÂĻ":1649,"đÂį":1650,"Ē|":1651,"ĒĔ":1652,"ĒÂ»":1653,"ĒÂ´":1654,"ĒÂį":1655,"ē%":1656,"ē^":1657,"ē`":1658,"ēĄ":1659,"ēÂ±":1660,"ēÂ®":1661,"ēÂĳ":1662,"ēÂĶ":1663,"Ĕ{":1664,"ĔĈ":1665,"Ĕē":1666,"ĔÂĴ":1667,"ĔÂĻ":1668,"ĕ\"":1669,"ĕĚ":1670,"ĕÂĵ":1671,"ĖÂľ":1672,"ĖÂİ":1673,"ė:":1674,"ėĂ":1675,"ėĒ":1676,"ėĘ":1677,"ėÂĸ":1678,"Ę)":1679,"Ę@":1680,"ĘÂĥ":1681,"ĘÂĶ":1682,"ĘÂŁ":1683,"ę,":1684,"ęĂ":1685,"ęě":1686,"ęÂ¸":1687,"ęÂĬ":1688,"Ě^":1689,"ĚĎ":1690,"ĚÂģ":1691,"ěā":1692,"ěę":1693,"ěÂĭ":1694,"ěÂĵ":1695,"ěÂĶ":1696,"Ĝ'":1697,"Ĝ\\":1698,"ĝ&":1699,"ĝĄ":1700,"ĝĈ":1701,"ĝĚ":1702,"ĝÂ·":1703,"Ğ;":1704,"Ğ[":1705,"Ğ]":1706,"ĞÂ¶":1707,"ĞÂŀ":1708,"ĞÂŁ":1709,"ğÃĹ":1710,"Ġ8":1711,"Ġh":1712,"Ġ{":1713,"ĠÂ¹":1714,"ĠÃ¯":1715,"ĠÃĺ":1716,"ĠÃ¼":1717,"ĠÃ¸":1718,"ĠÃĪ":1719,"ĠÃ§":1720,"ĠÂª":1721,"ĠÃŁ":1722,"ġĐ":1723,"ġę":1724,"ġÂĸ":1725,"ġÂĻ":1726,"ġÂŀ":1727,"taloud":1728,"poleas":1729,"asam":1730,"asyears":1731,"asgate":1732,"theme":1733,"thestrait":1734,"theshall":1735,"thecircumstance":1736,"theunafraid":1737,"thealoud":1738,"thenight":1739,"thewhatever":1740,"thescroll":1741,"ofthat":1742,"ofmatters":1743,"ofthethe":1744,"ofcovers":1745,"ofofthe":1746,"ofgate":1747,"ofmay":1748,"ofMy":1749,"ofaloud":1750,"ofplace":1751,"ofclutch":1752,"ofwinced":1753,"mestrait":1754,"mecovers":1755,"memaster":1756,"ÃĤO":1757,"ÃĤÃĸ":1758,"ÃĤÃ¯":1759,"ÃĤÃĥ":1760,"ÃĤÃ¹":1761,"ÃĤÃļ":1762,"ÃģM":1763,"ÃģÃ½":1764,"ÃģÃŀ":1765,"ÃģÃ§":1766,"ÃģÃ£":1767,"isis":1768,"isand":1769,"ischarged":1770,"isto":1771,"Â¡,":1772,"Â¡@":1773,"Â¡Â¡":1774,"Â¡Â¿":1775,"Â¡ÂĢ":1776,"Â¡Â¥":1777,"ÃķÃĭ":1778,"ÃķÃĮ":1779,"ÃķÃİ":1780,"ÃķÃľ":1781,"Â²Â½":1782,"Â»;":1783,"Â»?":1784,"Â»Âİ":1785,"Â»Âī":1786,"Â»ÂĹ":1787,"Â»ÂŁ":1788,"Â»ÂĮ":1789,"Â±&":1790,"Â±<":1791,"Â±Ć":1792,"Â±ę":1793,"Â±Â°":1794,"Â±ÂĴ":1795,"Â±Âĵ":1796,"Â±ÂĶ":1797,"Â±Âķ":1798,"ÃĸJ":1799,"ÃĸR":1800,"Ãĸg":1801,"ÃĸÃģ":1802,"Â°ğ":1803,"Â°Â»":1804,"Â°ÂĽ":1805,"Â°Â®":1806,"Â°Âĵ":1807,"Â°Âī":1808,"Â°Â¥":1809,"Â°Âķ":1810,"Â³7":1811,"Ã»q":1812,"Ã»ÃĨ":1813,"Ã»ÃĲ":1814,"Ã»Ãľ":1815,"Ã»ÃĪ":1816,"Ã»ÃĶ":1817,"Ã»Ã¿":1818,"ÂºC":1819,"ÂºÃ¬":1820,"ÂºÃĵ":1821,"ÂºÃ¯":1822,"Ã¡ÃĲ":1823,"Ã¡Ã°":1824,"Ã¡Ã¯":1825,"Ã¡Ãħ":1826,"Ã¡Ã¼":1827,"Ã¡Ãº":1828,"Ã¡Ã¾":1829,"Ã¡Ãī":1830,"Ã¬O":1831,"Ã¬Z":1832,"ÃĦA":1833,"ÃĦi":1834,"ÃĦÃĭ":1835,"ÃĦÃİ":1836,"ÃĨT":1837,"ÃĨÃĥ":1838,"ÃĨÃ¼":1839,"ÃĨÃŃ":1840,"ÃĨÃı":1841,"ÃĨÃĳ":1842,"ÃĨÃĽ":1843,"ÃĲT":1844,"ÃĲÃ¦":1845,"ÃĲÃł":1846,"ÃĲÃ£":1847,"Â¿;":1848,"Â¿[":1849,"Â¿`":1850,"Â¿ÂĨ":1851,"Â¿Â©":1852,"Â¿Â§":1853,"Â¿Â¯":1854,"Ã°S":1855,"Ã°X":1856,"Ã°b":1857,"Ã°t":1858,"Ã°Ãħ":1859,"Ã°Ãĺ":1860,"Ã°Ã²":1861,"ÂĸĔ":1862,"ÂĸÂ»":1863,"ÂĸÂĪ":1864,"ÂĸÂĲ":1865,"Â¹5":1866,"Â¹Â³":1867,"ÂĢ~":1868,"ÂĢĕ":1869,"ÂĢÂ¶":1870,"ÂĢÂĳ":1871,"ÂĢÂ¤":1872,"ÂĪ.":1873,"ÂĪ}":1874,"ÂĪě":1875,"ÂĪÂĢ":1876,"ÂĪÂĻ":1877,"ÂĪÂĿ":1878,"Ãĵb":1879,"Ãĵy":1880,"ÃĵÃ½":1881,"ÃĵÃ¼":1882,"ÂĴ_":1883,"ÂĴ`":1884,"ÂĴğ":1885,"Âľ/":1886,"ÂľÂ§":1887,"ÂľÂ¬":1888,"ÂľÂį":1889,"ÂľÂ¥":1890,"Ã®W":1891,"Ã®r":1892,"Ã®Ãĥ":1893,"Ã®Ãł":1894,"Ã®ÃĶ":1895,"Ã®Âµ":1896,"Ã®Âª":1897,"Ã¯U":1898,"Ã¯W":1899,"Ã¯k":1900,"Ã¯Ã¬":1901,"Ã¯Ã®":1902,"Ã¯ÃĬ":1903,"Ã¯Ãª":1904,"Ã¯Ãİ":1905,"Ã¯ÃĻ":1906,"Ã¯ÃĢ":1907,"ÃħE":1908,"ÃħQ":1909,"Ãħc":1910,"Ãħq":1911,"Ãħy":1912,"ÃħÃİ":1913,"ÃħÃł":1914,"ÃĬP":1915,"ÃĬÃĮ":1916,"ÃĬÃ¾":1917,"ÃĬÃĿ":1918,"ÃĺY":1919,"Ãĺy":1920,"ÃĺÃģ":1921,"ÃĺÃ¾":1922,"ÃĺÃĪ":1923,"ÃĺÃ¿":1924,"Âģ+":1925,"Âģă":1926,"ÂģÂĽ":1927,"ÂģÂ¸":1928,"ÂģÂļ":1929,"ÂĽÂģ":1930,"ÂĽÃĹ":1931,"ÂĽÂ¥":1932,"Ã´u":1933,"Ã´z":1934,"Ã´ÃĤ":1935,"ÃĥÃ®":1936,"ÃĥÃħ":1937,"ÃĥÃ¨":1938,"ÃĥÃ§":1939,"ÃĥÃµ":1940,"ÃĥÃ²":1941,"Â®Â»":1942,"Â®ÂĢ":1943,"Â®Âľ":1944,"Â®ÂĤ":1945,"Â®Âį":1946,"Â®ÂĦ":1947,"Â¶ÂĮ":1948,"Â¶Âķ":1949,"ÂĨ*":1950,"ÂĨĄ":1951,"ÂĨĔ":1952,"ÂĨÂĪ":1953,"ÂĨÂ©":1954,"ÂĨÂ¢":1955,"Âĭ(":1956,"Âĭć":1957,"ÂĭÂ¡":1958,"ÂĭÂĽ":1959,"ÂĭÂĳ":1960,"ÂĭÂĺ":1961,"Â£*":1962,"Â£Ę":1963,"Â£Â¡":1964,"Â£ÂĽ":1965,"Â£ÃĹ":1966,"Â¸,":1967,"Â¸Ĉ":1968,"Â¸Ē":1969,"Â¸ě":1970,"Â¸Â±":1971,"Â¸ÂĴ":1972,"Â¸Âį":1973,"Â¸ÂĦ":1974,"Â¼1":1975,"Â¼7":1976,"ÂĻě":1977,"ÂĻÂĵ":1978,"ÂĻÂ©":1979,"Ã½Ã¬":1980,"Ã½ÃĢ":1981,"Ã½ÃĪ":1982,"Ã½Ãµ":1983,"Ã½ÃĴ":1984,"ÃĩM":1985,"ÃĩÃĵ":1986,"ÃĩÃŀ":1987,"Â¦}":1988,"Â¦Ć":1989,"Â¦ÂĴ":1990,"Â¦Â¶":1991,"Â¦ÂĨ":1992,"Â¦Â¢":1993,"Â¦ÂĤ":1994,"ÂĲ$":1995,"ÂĲ:":1996,"ÂĲā":1997,"ÂĲĚ":1998,"ÂĲÂ©":1999,"ÂĲÂĩ":2000,"ÂĲÂĹ":2001,"ÂĵĀ":2002,"ÂĵĔ":2003,"ÂĵÂĢ":2004,"ÂĵÂĪ":2005,"ÂĵÂĨ":2006,"ÂĵÂĹ":2007,"ÂĵÂį":2008,"ÃªH":2009,"ÃªJ":2010,"Ãªl":2011,"Ãªr":2012,"ÃªÃ¬":2013,"ÃªÃĭ":2014,"ÃªÃİ":2015,"ÃªÃĪ":2016,"Ã·=":2017,"Ã·ā":2018,"Ã·đ":2019,"Ã·Â¡":2020,"Ã·Â»":2021,"Ã·Â°":2022,"Ã·Â¿":2023,"Ã·Â¬":2024,"Ã·ÂĤ":2025,"Ã·Â¯":2026,"Ã·ÂŃ":2027,"Ã¼f":2028,"Ã¼Ã°":2029,"ÃĭU":2030,"Ãĭh":2031,"Ãĭp":2032,"ÃĭÃģ":2033,"ÃĭÃħ":2034,"ÃĭÃĩ":2035,"ÃĭÃ«":2036,"ÃĮÃĥ":2037,"Âı%":2038,"Âı,":2039,"Âı`":2040,"ÂıĞ":2041,"ÂıÂ¶":2042,"ÂıÂ§":2043,"ÂıÂī":2044,"ÂıÂĹ":2045,"Ã«A":2046,"Ã«ÃĦ":2047,"Ã«ÃĻ":2048,"Ã«Ã±":2049,"Ã«Ãł":2050,"ÃºL":2051,"ÃºÃĮ":2052,"Â¨)":2053,"Â¨:":2054,"Â¨ė":2055,"Â¨Âļ":2056,"Â¨ÂŃ":2057,"Â©!":2058,"Â©Ę":2059,"Â©ĝ":2060,"Â©Â¸":2061,"Â©Âı":2062,"Â©Â©":2063,"Â©Â¬":2064,"Âĥ,":2065,"Âĥĝ":2066,"ÂĳĐ":2067,"ÂĳÂĵ":2068,"ÂĶ^":2069,"ÂĶĕ":2070,"ÂĶĝ":2071,"ÂĶÂĥ":2072,"ÂĶÂĬ":2073,"Âŀ(":2074,"Âŀ?":2075,"Âŀ]":2076,"ÂŀÂģ":2077,"ÂŀÂį":2078,"Ã¥C":2079,"Ã¥I":2080,"Ã¥T":2081,"Ã¥v":2082,"Ã¥Ãħ":2083,"ÃİG":2084,"Ãİk":2085,"Ãİq":2086,"ÃİÃĲ":2087,"ÃİÃĵ":2088,"ÃİÃĬ":2089,"ÃİÃ¶":2090,"ÃİÃī":2091,"ÃľK":2092,"ÃľV":2093,"Ãľy":2094,"ÃľÃ«":2095,"ÃľÃº":2096,"ÃľÃĿ":2097,"ÃŃÃķ":2098,"ÃŃÃĨ":2099,"ÃŃÃĶ":2100,"Â§Â¬":2101,"Â§ÂĮ":2102,"Â·!":2103,"Â·Âĸ":2104,"Â·ÂĢ":2105,"Â¾5":2106,"Âİ!":2107,"Âİ(":2108,"Âİ;":2109,"Âİē":2110,"ÂİÂĸ":2111,"ÂİÂ¨":2112,"Ã¾S":2113,"Ã¾ÃĤ":2114,"Ã¾Ãģ":2115,"Ã¾Ãľ":2116,"Ã¾Ãµ":2117,"Ã¾Ã¢":2118,"Ã¾ÃŁ":2119,"ÃĻH":2120,"ÃĻÃĸ":2121,"ÃĻÃ´":2122,"ÃĻÃĩ":2123,"ÃĻÃŃ":2124,"ÃĻÃł":2125,"ÃĻÂª":2126,"ÃŀV":2127,"Ãŀq":2128,"ÃŀÃĳ":2129,"ÃŀÃ£":2130,"Âī_":2131,"Âīď":2132,"ÂīÂĸ":2133,"ÂīÂĮ":2134,"ÃıB":2135,"ÃıH":2136,"ÃıÃģ":2137,"ÃıÃ´":2138,"ÃıÃ²":2139,"ÃĳO":2140,"ÃĳÃį":2141,"Ã¨ÃĿ":2142,"Ã¨Âª":2143,"Ã³M":2144,"Ã³S":2145,"Ã³c":2146,"Ã³f":2147,"Ã³ÃĻ":2148,"Ã³Ãł":2149,"Ã³Ã²":2150,"Ã³ÃĽ":2151,"Ã¸Ã¼":2152,"Ã¸Âª":2153,"ÃĢD":2154,"ÃĢS":2155,"ÃĢj":2156,"ÃĢÃħ":2157,"ÃĢÃĬ":2158,"ÃĢÃĩ":2159,"ÃĢÃŃ":2160,"Â¢Âĺ":2161,"Â¬$":2162,"Â¬ĕ":2163,"Ã¦H":2164,"Ã¦W":2165,"Ã¦r":2166,"Ã¦Ãĩ":2167,"Ã¶m":2168,"Ã¶o":2169,"Ã¶q":2170,"Ã¶ÃĨ":2171,"Ã¶Ã½":2172,"Ã¶Ã¾":2173,"Ã¶Ãł":2174,"Ã¹S":2175,"Ã¹Ã®":2176,"Ã¹Ã«":2177,"Ã¹Ãº":2178,"Ã¹Ã¢":2179,"ÃĹÂ¡":2180,"ÃĹÂ¿":2181,"ÃĹÂı":2182,"Ã±I":2183,"Ã±P":2184,"Ã±R":2185,"Ã±g":2186,"Ã±Ã´":2187,"ÃĪK":2188,"ÃĪp":2189,"ÃĪÃ¬":2190,"ÃĪÃµ":2191,"ÃłM":2192,"ÃłÃĦ":2193,"ÃłÃ®":2194,"ÃłÃ¶":2195,"ÃłÃµ":2196,"ÂĤā":2197,"ÂĤġ":2198,"ÂĤÂ°":2199,"ÂĤÂĢ":2200,"ÂĤÂĬ":2201,"Âĩ?":2202,"Âĩ^":2203,"ÂĩĖ":2204,"Âĩĝ":2205,"Âĩğ":2206,"Âĩġ":2207,"ÂĩÂģ":2208,"ÂĩÂķ":2209,"ÂĹ<":2210,"ÂĹ|":2211,"ÂĹĂ":2212,"ÂĹĖ":2213,"ÂĹġ":2214,"ÂĹÂį":2215,"ÂĹÂ¥":2216,"Ã§F":2217,"Ã§M":2218,"Ã§b":2219,"Ã§c":2220,"Ã§d":2221,"Ã§z":2222,"Ã§Ã»":2223,"Ã§Ã¿":2224,"Ã©H":2225,"Ã©L":2226,"Ã©i":2227,"Ã©ÃĦ":2228,"Ãīa":2229,"Ãīf":2230,"Ãīu":2231,"Ãīw":2232,"ÃīÃĦ":2233,"ÃīÃĺ":2234,"ÃīÃį":2235,"ÃĿH":2236,"ÃĿU":2237,"ÃĿa":2238,"ÃĿv":2239,"ÃĿÃĮ":2240,"ÃĿÃ«":2241,"mythe":2242,"myis":2243,"myam":2244,"mybut":2245,"mystrait":2246,"mychance":2247,"mywith":2248,"myLooms":2249,"myAnd":2250,"myBeyond":2251,"mycircumstance":2252,"myfate":2253,"myMy":2254,"myBlack":2255,"mygods":2256,"mypit":2257,"mywinced":2258,"myIthe":2259,"Ã¤Ã®":2260,"Ã¤Ãĥ":2261,"Ã¤Ã½":2262,"ÃļQ":2263,"Ãļs":2264,"Ãļw":2265,"ÃļÃĨ":2266,"ÃļÂµ":2267,"ÃįK":2268,"ÃįS":2269,"ÃįU":2270,"Ãįo":2271,"Ãįr":2272,"ÃįÃļ":2273,"ÃįÂª":2274,"ÃĶÂº":2275,"thatand":2276,"Â´>":2277,"Â´Ā":2278,"Â´ē":2279,"Â´ğ":2280,"Â´ÂĴ":2281,"ÂµÃĢ":2282,"ÂŁ&":2283,"ÂŁ+":2284,"ÂŁ/":2285,"ÂŁ<":2286,"ÂŁ|":2287,"ÂŁę":2288,"ÂŁÂ¨":2289,"ÂŁÂļ":2290,"ÂŁÂķ":2291,"Â¤>":2292,"Â¤`":2293,"Â¤~":2294,"Â¤Ě":2295,"Â¤Â¦":2296,"Â¤Âĺ":2297,"ÂªK":2298,"Âªq":2299,"ÂªÃ»":2300,"ÂªÃŃ":2301,"ÂªÃı":2302,"Ã²Q":2303,"Ã²p":2304,"Ã²Ã¾":2305,"Â«>":2306,"Â«`":2307,"Â«ę":2308,"Â«Â®":2309,"Â«Âĭ":2310,"Â«ÂŁ":2311,"ÂĬ|":2312,"ÂĬĔ":2313,"Âį+":2314,"ÂįÂŁ":2315,"Âļ*":2316,"ÂļĔ":2317,"ÂļĘ":2318,"ÂļÂĸ":2319,"ÂļÂĨ":2320,"ÂļÂı":2321,"ÂļÂ·":2322,"ÂļÂ¤":2323,"ÃĽX":2324,"ÃĽo":2325,"ÃĽÃ¡":2326,"ÃĽÃ½":2327,"ÃĽÃ¾":2328,"Ã¢ÃĬ":2329,"ÃĴÃĥ":2330,"ÃĴÃ¸":2331,"ÃĴÃ²":2332,"ÃĴÃĽ":2333,"ÃĴÃĴ":2334,"Â¯đ":2335,"Â¯Âı":2336,"Ã¿c":2337,"Ã¿ÃĦ":2338,"Ã¿Ãĵ":2339,"Ã¿ÃĶ":2340,"Ã¿ÃŁ":2341,"Â¥$":2342,"Â¥.":2343,"Â¥Âĵ":2344,"Â¥Â¨":2345,"ÂĺÂ¦":2346,"Ã£q":2347,"Ã£ÃĲ":2348,"ÃŁÃ¨":2349,"ÂĦ~":2350,"ÂĦđ":2351,"cham":2352,"ÂĿ!":2353,"ÂĿ:":2354,"ÂĿ|":2355,"ÂĿÂ´":2356,"ÂĮ#":2357,"ÂĮć":2358,"ÂĮď":2359,"ÂĮĒ":2360,"ÂĮĚ":2361,"ÂĮÂĵ":2362,"ÂĮÂ¨":2363,"ÂĮÂĥ":2364,"ÂĮÂ¯":2365,"yethave":2366,"yetscroll":2367,"Âķ(":2368,"ÂŃĄ":2369,"ÂŃĖ":2370,"ÂŃÂ£":2371,"ÂŃÂŀ":2372,"polefind":2373,"polewith":2374,"notyet":2375,"amfind":2376,"amfrom":2377,"amgate":2378,"amthis":2379,"ammaster":2380,"amofand":2381,"andme":2382,"andshade":2383,"butfind":2384,"butwith":2385,"butmay":2386,"butcircumstance":2387,"Underhow":2388,"UnderLooms":2389,"Underbludgeonings":2390,"Undernor":2391,"fellof":2392,"fellmatters":2393,"fellthethe":2394,"fellunafraid":2395,"captainof":2396,"captainthat":2397,"captainBeyond":2398,"captainunbowed":2399,"captaintheyet":2400,"thatthe":2401,"howI":2402,"howAnd":2403,"tersoul":2404,"findthank":2405,"straitbloody":2406,"straitplace":2407,"straitbe":2408,"witha":2409,"chancemy":2410,"chancesoul":2411,"chancehow":2412,"mattersand":2413,"mattersmenace":2414,"mattersIn":2415,"mattersBlack":2416,"mattershead":2417,"thethechance":2418,"thethepunishments":2419,"punishmentssoul":2420,"punishmentsBeyond":2421,"punishmentsclutch":2422,"Forfrom":2423,"Forwrath":2424,"Forpit":2425,"withgate":2426,"withscroll":2427,"fromof":2428,"fromfell":2429,"fromfind":2430,"fromgate":2431,"oftheI":2432,"ofthewith":2433,"ofthefrom":2434,"oftheshall":2435,"ofthebloody":2436,"menacealoud":2437,"chargedunafraid":2438,"Loomscried":2439,"yearsof":2440,"bludgeoningst":2441,"Andchance":2442,"Andcharged":2443,"Andgate":2444,"mayfate":2445,"Beyondthe":2446,"Beyondpole":2447,"BeyondMy":2448,"wrathsoul":2449,"haveof":2450,"havepunishments":2451,"shallthe":2452,"shallpole":2453,"shallsoul":2454,"bludgeoningscovers":2455,"bludgeoningscharged":2456,"clutcham":2457,"norBeyond":2458,"norhead":2459,"Itunconquerable":2460,"Ittheyet":2461,"Mypit":2462,"placethe":2463,"tearsmenace":2464,"clutchpole":2465,"whatevers":2466,"Outmy":2467,"criedmy":2468,"criedofthe":2469,"HowBlack":2470,"HowIof":2471,"bethe":2472,"whateverand":2473,"whateverwith":2474,"whateverfrom":2475,"whateverLooms":2476,"whateveraloud":2477,"Blackcaptain":2478,"BlackIn":2479,"Blacknight":2480,"thispole":2481,"thisshade":2482,"godssoul":2483,"godscovers":2484,"godsFor":2485,"godsIt":2486,"Findsas":2487,"Findsofthe":2488,"Findsfate":2489,"Findsthefate":2490,"mastersoul":2491,"tobut":2492,"tostrait":2493,"Horrorthe":2494,"Horrorhow":2495,"HorrorLooms":2496,"Horrorhave":2497,"pitof":2498,"pitunbowed":2499,"masteryet":2500,"wincedcircumstance":2501,"theofmatters":2502,"theofcircumstance":2503,"theofbe":2504,"Ithealoud":2505,"ofandof":2506,"butam":2507,"buthead":2508,"themyI":2509,"wraththethis":2510,"Outa":2511,"Outam":2512,"ofcaptainsoul":2513,"offindbloody":2514,"tonot":2515,"!&":2516,"!'":2517,"!+":2518,"!-":2519,"!/":2520,"!>":2521,"!^":2522,"!`":2523,"!ā":2524,"!ą":2525,"!Ď":2526,"!ĕ":2527,"!ĝ":2528,"!ÂĢ":2529,"!Âľ":2530,"!ÂĲ":2531,"!Âĵ":2532,"!Ã·":2533,"!Âŀ":2534,"!Â·":2535,"!Âī":2536,"!Â¢":2537,"!ÂĹ":2538,"!ÂĬ":2539,"!Âļ":2540,"!ďÂ¡":2541,"!;!":2542,"!ĀÂĻ":2543,"!ē%":2544,"!Â®Âľ":2545,"!ÃĹÂ¡":2546,"!Âĩğ":2547,"!ÂĮ#":2548,"\"(":2549,"\"=":2550,"\"]":2551,"\"Ą":2552,"\"Ć":2553,"\"ć":2554,"\"Ę":2555,"\"ġ":2556,"\"Â¡":2557,"\"ÂĢ":2558,"\"Âģ":2559,"\"Â®":2560,"\"Â¶":2561,"\"ÂĻ":2562,"\"Â¨":2563,"\"Â©":2564,"\"Âī":2565,"\"ÂĤ":2566,"\"Â´":2567,"\"Â¤":2568,"\"ÂĬ":2569,"\"Âļ":2570,"\"Â¯":2571,"\"Âķ":2572,"\"\"đ":2573,"\"Âŀ]":2574,"#%":2575,"#:":2576,"#;":2577,"#=":2578,"#[":2579,"#Ą":2580,"#Đ":2581,"#đ":2582,"#ė":2583,"#Ĝ":2584,"#ġ":2585,"#Â±":2586,"#ÂĢ":2587,"#ÂĪ":2588,"#Âĵ":2589,"#Âŀ":2590,"#Â«":2591,"#Âĺ":2592,"#ÂĦ":2593,"#ÂŃ":2594,"#}Â£":2595,"#~]":2596,"$/":2597,"$^":2598,"$|":2599,"$Ć":2600,"$Ĉ":2601,"$ď":2602,"$đ":2603,"$Ē":2604,"$Ę":2605,"$ę":2606,"$Ě":2607,"$ÂĽ":2608,"$Â¶":2609,"$Âĭ":2610,"$ÂĻ":2611,"$ÂĲ":2612,"$Âĩ":2613,"$ÂĹ":2614,"$ÂŁ":2615,"$Â«":2616,"$ÂĬ":2617,"$Âį":2618,"$Âļ":2619,"$Âķ":2620,"$ÂŃ":2621,"${Âĸ":2622,"$ĈÂ¡":2623,"$Ă,":2624,"$ēĄ":2625,"$Â¸ÂĦ":2626,"$ÂĦđ":2627,"%$":2628,"%*":2629,"%.":2630,"%;":2631,"%@":2632,"%}":2633,"%ď":2634,"%Đ":2635,"%đ":2636,"%ē":2637,"%ĕ":2638,"%ė":2639,"%Ę":2640,"%ĝ":2641,"%Â¡":2642,"%Â¿":2643,"%ÂĢ":2644,"%ÂĴ":2645,"%Â®":2646,"%Âĵ":2647,"%Âĳ":2648,"%Â§":2649,"%Âī":2650,"%Â¢":2651,"%Â´":2652,"%Â¤":2653,"%Âį":2654,"%Âļ":2655,"%ÂĦ":2656,"%{Â¤":2657,"%#Ď":2658,"%,ÂĦ":2659,"%`@":2660,"%ąÂ«":2661,"%Â±Â°":2662,"%Â«ę":2663,"&(":2664,"&-":2665,"&]":2666,"&}":2667,"&~":2668,"&Ć":2669,"&ė":2670,"&ğ":2671,"&ÂĪ":2672,"&ÂĨ":2673,"&Ã·":2674,"&Âĥ":2675,"&ÂĶ":2676,"&Âŀ":2677,"&Â§":2678,"&Â·":2679,"&Âļ":2680,"&ÂĿ":2681,"&ÂľÂĤ":2682,"&%ě":2683,"&ġÂĸ":2684,"&Â£ÂĽ":2685,"&ÂĹ|":2686,"'\"":2687,"'(":2688,"')":2689,"':":2690,"']":2691,"'ā":2692,"'ą":2693,"'Ć":2694,"'ē":2695,"'ė":2696,"'ę":2697,"'ĝ":2698,"'Âľ":2699,"'Â¸":2700,"'Âī":2701,"'Â¢":2702,"'Â¤":2703,"'Â¯":2704,"'ÂĮ":2705,"'ĕ#":2706,"'ÂĪÂ¯":2707,"'\"Â¢":2708,"'<?":2709,"'ěÂĶ":2710,"'ÂŁę":2711,"()":2712,"(+":2713,"(.":2714,"(/":2715,"(<":2716,"(?":2717,"(@":2718,"([":2719,"(\\":2720,"(]":2721,"(^":2722,"(|":2723,"(Ă":2724,"(ć":2725,"(đ":2726,"(Ē":2727,"(ĕ":2728,"(Ė":2729,"(ĝ":2730,"(Â¡":2731,"(Â»":2732,"(Â±":2733,"(Â¿":2734,"(ÂĴ":2735,"(ÂĽ":2736,"(Â¶":2737,"(Â¦":2738,"(ÂĲ":2739,"(Ã·":2740,"(Âī":2741,"(ÂĤ":2742,"(Â¤":2743,"(ÂĬ":2744,"(Â®ÂĨ":2745,"(ĆĐ":2746,"(ÂıÂ´":2747,"(Â«Â¨":2748,"(}Â¿":2749,"(ÂĦđ":2750,"(Âķ(":2751,")!":2752,"))":2753,"),":2754,")]":2755,")|":2756,")Ā":2757,")Ē":2758,")Ĕ":2759,")ę":2760,")ě":2761,")Âģ":2762,")Â¶":2763,")Âĭ":2764,")ÂĲ":2765,")Âı":2766,")Â¨":2767,")Âĥ":2768,")Â·":2769,")ÂŁ":2770,")Âķ":2771,")ÂŃ":2772,")ÂĳÂĬ":2773,")ć:":2774,")Â°Â¥":2775,")Â§Â¬":2776,")ÂĦ~":2777,"*'":2778,"*:":2779,"*^":2780,"*Ā":2781,"*ÂĢ":2782,"*ÂĪ":2783,"*Â¦":2784,"*Âŀ":2785,"*Â§":2786,"*Â·":2787,"*Â¬":2788,"*Âĩ":2789,"*ÂĹ":2790,"*ÂĮ":2791,"*`Â¬":2792,"*~]":2793,"*đÂį":2794,"*#[":2795,"+$":2796,"++":2797,"+,":2798,"+-":2799,"+/":2800,"+;":2801,"+?":2802,"+[":2803,"+}":2804,"+Ă":2805,"+Ą":2806,"+ė":2807,"+Ę":2808,"+ġ":2809,"+ÂĪ":2810,"+Âģ":2811,"+ÂĽ":2812,"+Âĭ":2813,"+Âı":2814,"+Â¨":2815,"+ÂĶ":2816,"+%^":2817,"+'Âı":2818,"+Â¡Â¿":2819,"+Â»ÂŁ":2820,"+ÂĴ`":2821,"+Â¸,":2822,"+Â©Â¸":2823,"+\"Â¡":2824,"+)Â§Â¬":2825,",*":2826,",<":2827,",?":2828,",Ĉ":2829,",Ē":2830,",Ĕ":2831,",ğ":2832,",ÂĪ":2833,",ÂĻ":2834,",Â¦":2835,",ÂĶ":2836,",Âŀ":2837,",Âķ":2838,",Ã·Â»":2839,",Â´Ā":2840,"-`":2841,"-Ā":2842,"-ć":2843,"-ď":2844,"-Ē":2845,"-ġ":2846,"-Â®":2847,"-Â¦":2848,"-Â·":2849,"-Â¢":2850,"-ÃĹ":2851,"-ÂĤ":2852,"-ÂŁ":2853,"-ÂĬ":2854,"-Âį":2855,"-ÃĹ!":2856,"-*Âİ":2857,"-Ć&":2858,"-ĘÂŁ":2859,".?":2860,".@":2861,".ă":2862,".Ą":2863,".ą":2864,".ĝ":2865,".ġ":2866,".Â¡":2867,".Â»":2868,".Âĸ":2869,".Âģ":2870,".Â®":2871,".Â¸":2872,".Â§":2873,".ÂĤ":2874,".ÂĹ":2875,".Âį":2876,".Âļ":2877,".Â¥":2878,".ÂŃ":2879,".Ã·[":2880,".%!":2881,".-Â«":2882,"..ď":2883,".ÂĶĕ":2884,".\"\"đ":2885,".,ÂĶ":2886,"/\"":2887,"/+":2888,"/,":2889,"/.":2890,"/^":2891,"/`":2892,"/~":2893,"/Ā":2894,"/Ć":2895,"/ć":2896,"/Ď":2897,"/Đ":2898,"/đ":2899,"/ė":2900,"/Ę":2901,"/Â±":2902,"/Âĸ":2903,"/ÂĪ":2904,"/Âľ":2905,"/Âģ":2906,"/Âĭ":2907,"/Âı":2908,"/Âĥ":2909,"/Âŀ":2910,"/ÂĤ":2911,"/Â¯":2912,"/<Âı":2913,"/(ą":2914,"/>{":2915,"/ġÂŀ":2916,"/*Â·":2917,"00":2918,"04":2919,"08":2920,"09":2921,"0Â¹":2922,"20":2923,"25":2924,"26":2925,"32":2926,"37":2927,"38":2928,"3Â³":2929,"40":2930,"42":2931,"43":2932,"48":2933,"4Â¹":2934,"4Â½":2935,"40Â²":2936,"64":2937,"66":2938,"67":2939,"68":2940,"6Â²":2941,"6Â¹":2942,"71":2943,"72":2944,"75":2945,"76":2946,"7Â³":2947,"7Â¼":2948,"748":2949,"85":2950,"88":2951,"89":2952,"8Â¹":2953,"92":2954,"93":2955,"97":2956,"98":2957,"99":2958,"9Â¹":2959,"9Â¾":2960,":)":2961,":/":2962,":}":2963,":Ą":2964,":ć":2965,":Ĉ":2966,":ę":2967,":Ě":2968,":Ĝ":2969,":ÂĪ":2970,":Âľ":2971,":Â®":2972,":ÂĻ":2973,":Â·":2974,":Âİ":2975,":ÃĹ":2976,":Â´":2977,":ÂĦ":2978,":ÂĮ":2979,":Âķ":2980,":ÂīÂŁ":2981,":^!":2982,":Â¡ÂĢ":2983,":ÂĭÂĺ":2984,";#":2985,";%":2986,";&":2987,";-":2988,";~":2989,";Ā":2990,";Ć":2991,";Đ":2992,";đ":2993,";Ĕ":2994,";ě":2995,";Ĝ":2996,";ğ":2997,";Â°":2998,";Âĸ":2999,";Â®":3000,";Â¦":3001,";ÂĲ":3002,";Ã·":3003,";Âĳ":3004,";Âŀ":3005,";Â§":3006,";Â¢":3007,";ÃĹ":3008,";Â´":3009,";Â¯":3010,";Â¥":3011,";ÂĦ":3012,";ÂĿ":3013,";ÂĦ\\":3014,";+ÂĤ":3015,";ÂĴğ":3016,"<(":3017,"<,":3018,"<=":3019,"<`":3020,"<ć":3021,"<Ĉ":3022,"<ġ":3023,"<Âĸ":3024,"<ÂĽ":3025,"<Â®":3026,"<ÂĨ":3027,"<Âĭ":3028,"<Â£":3029,"<Â¸":3030,"<Â©":3031,"<Âĳ":3032,"<Âŀ":3033,"<Â§":3034,"<Â¬":3035,"<Â´":3036,"<Âį":3037,"<ÂŃ":3038,"<>ÂĢ":3039,"<ĔÂĻ":3040,"<ÂļĔ":3041,"<ÂĮÂĵ":3042,"=#":3043,"=$":3044,"=%":3045,"=(":3046,"=)":3047,"=/":3048,"=\\":3049,"=`":3050,"=ā":3051,"=ą":3052,"=ď":3053,"=ē":3054,"=Ĕ":3055,"=Ė":3056,"=Ę":3057,"=ę":3058,"=ğ":3059,"=ġ":3060,"=Â¡":3061,"=ÂĽ":3062,"=Âĭ":3063,"=Â£":3064,"=Â¨":3065,"=Âĥ":3066,"=Â·":3067,"=Âİ":3068,"=Âī":3069,"=Â¤":3070,"=Âļ":3071,"=Âĥ#":3072,"=Â«ė":3073,"=ÂĿ{":3074,"=#Âĩ":3075,"=Â¬ĕ":3076,"=++":3077,"=;Â§":3078,">:":3079,">~":3080,">ą":3081,">Ę":3082,">Ĝ":3083,">Â¡":3084,">Â»":3085,">ÂĴ":3086,">ÂĽ":3087,">Â®":3088,">Â£":3089,">Â¦":3090,">Âĵ":3091,">Â§":3092,">ÂĤ":3093,">ÂŁ":3094,">Âļ":3095,">ÂĿ":3096,">`Ĉ":3097,">_Ė":3098,">ÂĪÂĿ":3099,"?)":3100,"?+":3101,"?,":3102,"?-":3103,"?>":3104,"?]":3105,"?_":3106,"?~":3107,"?ď":3108,"?Ė":3109,"?ė":3110,"?ĝ":3111,"?ğ":3112,"?ÂĪ":3113,"?Âĭ":3114,"?Ã·":3115,"?Â¨":3116,"?Â·":3117,"?Â¢":3118,"?ÂĤ":3119,"?ÂĹ":3120,"?ÂŃ":3121,"?ÂīÂ»":3122,"?.ď":3123,"?ÂĳĐ":3124,"?!^":3125,"?#:":3126,"?'ĕ#":3127,"@-":3128,"@\\":3129,"@]":3130,"@^":3131,"@_":3132,"@|":3133,"@Ă":3134,"@Ē":3135,"@ē":3136,"@Ė":3137,"@Ğ":3138,"@ğ":3139,"@Âĸ":3140,"@Âģ":3141,"@ÂĽ":3142,"@Â¶":3143,"@Âĵ":3144,"@Âı":3145,"@Â©":3146,"@ÂĶ":3147,"@Â¬":3148,"@ÂĦ":3149,"@ÂĦÂ¶":3150,"@ęÂ¸":3151,"@Â¡Â¿":3152,"@&%ě":3153,"@*^":3154,"@=#":3155,"AL":3156,"AR":3157,"AS":3158,"AU":3159,"AV":3160,"Af":3161,"Ah":3162,"An":3163,"Ao":3164,"Aq":3165,"Av":3166,"Aw":3167,"AÃķ":3168,"AÃĨ":3169,"AÃĵ":3170,"AÃ®":3171,"AÃħ":3172,"AÃĬ":3173,"AÃº":3174,"AÃľ":3175,"AÃ¾":3176,"AÃŀ":3177,"AÃĳ":3178,"AÃ¸":3179,"AÃ©":3180,"AÃī":3181,"AÃ¤":3182,"AÂª":3183,"AÃĴ":3184,"AÃŁ":3185,"AÃ½Ãµ":3186,"AÃ³ÃĽ":3187,"BF":3188,"BH":3189,"BI":3190,"BS":3191,"BY":3192,"Bf":3193,"Bm":3194,"Bp":3195,"Bu":3196,"BÃĤ":3197,"BÃ»":3198,"BÃ°":3199,"BÃĬ":3200,"BÃİ":3201,"BÃŃ":3202,"BÃ±":3203,"BÃ©":3204,"BÃĿ":3205,"BÃ¤":3206,"BÃµ":3207,"BÃ¿":3208,"BcÃ±":3209,"BÃŁU":3210,"Cc":3211,"Ce":3212,"Cf":3213,"Ci":3214,"Ck":3215,"Cl":3216,"Cm":3217,"Cn":3218,"CÃģ":3219,"CÃĨ":3220,"CÃĲ":3221,"CÃ°":3222,"CÃĬ":3223,"CÃĩ":3224,"CÃº":3225,"CÃı":3226,"CÃł":3227,"CÃļ":3228,"CÂµ":3229,"CÃ£":3230,"CyÂº":3231,"CBÃ¯":3232,"CVÃĿ":3233,"CoÃ°":3234,"CxÃĤ":3235,"CÃĸR":3236,"CÃ¯W":3237,"CÃİG":3238,"DA":3239,"DB":3240,"DI":3241,"DJ":3242,"DK":3243,"DL":3244,"Df":3245,"Dk":3246,"Dl":3247,"Dp":3248,"DÃģ":3249,"DÃ¬":3250,"DÃĦ":3251,"DÃĩ":3252,"DÃľ":3253,"DÂª":3254,"DVÃĳ":3255,"DÃ°Ãĺ":3256,"DÃªÃ¬":3257,"DCÃĩ":3258,"EB":3259,"EI":3260,"EJ":3261,"EW":3262,"Ea":3263,"Ed":3264,"Eg":3265,"Ek":3266,"Eo":3267,"Et":3268,"Ez":3269,"EÂº":3270,"EÃ°":3271,"EÃĬ":3272,"EÃ½":3273,"EÃĭ":3274,"EÃĻ":3275,"EÃ±":3276,"EÃĪ":3277,"EÃ§":3278,"EÃ©":3279,"EÃļ":3280,"EÃµ":3281,"EÂª":3282,"EÃ£":3283,"EÃŁ":3284,"EGÃµ":3285,"EFÃł":3286,"EPÃĳ":3287,"FL":3288,"FO":3289,"Fb":3290,"Fj":3291,"Fl":3292,"Fm":3293,"Fq":3294,"FÃķ":3295,"FÃĬ":3296,"FÃĭ":3297,"FÃ¥":3298,"FÃ¾":3299,"FÃĻ":3300,"FÃ©":3301,"FÃĽ":3302,"FÃ¿":3303,"FÃ£":3304,"FÃŁ":3305,"FWZ":3306,"FÃªÃĽ":3307,"FcÃ©":3308,"Fwq":3309,"GI":3310,"GW":3311,"GX":3312,"Gh":3313,"Gk":3314,"Gr":3315,"Gw":3316,"Gy":3317,"GÃķ":3318,"GÂº":3319,"GÃĲ":3320,"GÃĵ":3321,"GÃ¯":3322,"GÃ½":3323,"GÃĩ":3324,"GÃı":3325,"GÃ¸":3326,"GÃ¦":3327,"GÃĪ":3328,"GÃĿ":3329,"GÂµ":3330,"GÂª":3331,"GÃ£":3332,"GÃŁ":3333,"GÃĪW":3334,"GwÃĩ":3335,"Gbj":3336,"HD":3337,"HK":3338,"HQ":3339,"HX":3340,"HY":3341,"Hd":3342,"He":3343,"Ho":3344,"Hv":3345,"Hz":3346,"HÃģ":3347,"HÃķ":3348,"HÃĸ":3349,"HÃ»":3350,"HÂº":3351,"HÃ°":3352,"HÃ´":3353,"HÃĥ":3354,"HÃ¼":3355,"HÃĮ":3356,"HÃ«":3357,"HÃİ":3358,"HÃĻ":3359,"HÃĳ":3360,"HÃ¸":3361,"HÃ¦":3362,"HÃĪ":3363,"HÃ§":3364,"HÃ©":3365,"HÃį":3366,"HJA":3367,"HNÃ£":3368,"HRx":3369,"HfÃĳ":3370,"HÃ¡Ãħ":3371,"HÃłÃµ":3372,"HFb":3373,"IH":3374,"IO":3375,"IP":3376,"IT":3377,"IU":3378,"IY":3379,"If":3380,"Ii":3381,"Io":3382,"Ip":3383,"Iq":3384,"Is":3385,"IÃķ":3386,"IÂº":3387,"IÃ¡":3388,"IÃ¯":3389,"IÃ¼":3390,"IÃº":3391,"IÃ¸":3392,"IÃ±":3393,"IÃĪ":3394,"IÃĿ":3395,"IÃĽ":3396,"IÃ¢":3397,"IÃ¿":3398,"IÃ£":3399,"Ipole":3400,"Inot":3401,"Ifell":3402,"Ithat":3403,"Ifind":3404,"Ipunishments":3405,"IFor":3406,"Iwith":3407,"Ifrom":3408,"Iyears":3409,"Imay":3410,"IBeyond":3411,"Iwrath":3412,"Ibludgeonings":3413,"Iunafraid":3414,"Iplace":3415,"IIn":3416,"IHow":3417,"Iwhatever":3418,"Ihead":3419,"Igods":3420,"Imaster":3421,"Iwinced":3422,"Iscroll":3423,"Itas":3424,"Ihavethe":3425,"Iyetof":3426,"Icriedthe":3427,"IDD":3428,"INQ":3429,"ISl":3430,"IÃĦA":3431,"Iclutcham":3432,"Iwhatevers":3433,"JI":3434,"JM":3435,"Jb":3436,"Je":3437,"Jg":3438,"Jh":3439,"Jj":3440,"Jv":3441,"Jx":3442,"JÃĤ":3443,"JÂº":3444,"JÃĦ":3445,"JÃ°":3446,"JÃĺ":3447,"JÃĩ":3448,"JÃİ":3449,"JÃŃ":3450,"JÃ¾":3451,"JÃĳ":3452,"JÃ¨":3453,"JÃµ":3454,"JÃ²":3455,"JÃ¿":3456,"JvÃ¡":3457,"JSÃĮ":3458,"JtÃľ":3459,"JÃĻÃŃ":3460,"JÃĪÃµ":3461,"JEk":3462,"KB":3463,"KQ":3464,"KS":3465,"KT":3466,"KY":3467,"KZ":3468,"Ki":3469,"Kr":3470,"Kz":3471,"KÃģ":3472,"KÃķ":3473,"KÃ»":3474,"KÃĨ":3475,"KÃĲ":3476,"KÃĬ":3477,"KÃº":3478,"KÃ¥":3479,"KÃİ":3480,"KÃĻ":3481,"KÃŀ":3482,"KÃı":3483,"KÃĢ":3484,"KÃ¦":3485,"KÃ¹":3486,"KÃ±":3487,"KÃĿ":3488,"KÃ¤":3489,"KÃĶ":3490,"KÃ²":3491,"KÃĴ":3492,"KÃ¿":3493,"KeÃķ":3494,"KÃµÂº":3495,"KDÃĺ":3496,"KÃ½ÃĴ":3497,"KÃ¼f":3498,"KAÃ½Ãµ":3499,"LK":3500,"LM":3501,"LO":3502,"LQ":3503,"Lc":3504,"Ld":3505,"Lf":3506,"Lt":3507,"Lx":3508,"Lta":3509,"LÃģ":3510,"LÃĦ":3511,"LÃĨ":3512,"LÃĲ":3513,"LÃĵ":3514,"LÃĬ":3515,"LÃ´":3516,"LÃ½":3517,"LÃ«":3518,"LÃ¥":3519,"LÃİ":3520,"LÃ¨":3521,"LÃ¹":3522,"LÃĿ":3523,"LÃ¢":3524,"LÃĴ":3525,"LÃ¿":3526,"LPu":3527,"LÃįS":3528,"MA":3529,"MC":3530,"MF":3531,"MH":3532,"Ma":3533,"Mc":3534,"Me":3535,"Mg":3536,"Mk":3537,"Ml":3538,"Mn":3539,"Mu":3540,"Mw":3541,"MÃķ":3542,"MÃĸ":3543,"MÃ¡":3544,"MÃ¬":3545,"MÃħ":3546,"MÃĮ":3547,"MÃİ":3548,"MÃľ":3549,"MÃĻ":3550,"MÃŀ":3551,"MÃĢ":3552,"MÃ¹":3553,"MÃ§":3554,"MÃĽ":3555,"MÃĴ":3556,"MÃ¸v":3557,"MdÃ¬":3558,"MpÃł":3559,"MÃıÃ´":3560,"MMC":3561,"ND":3562,"NO":3563,"Nd":3564,"Ni":3565,"Nj":3566,"Nr":3567,"Nt":3568,"Nv":3569,"Nz":3570,"NÃ»":3571,"NÃĲ":3572,"NÃ°":3573,"NÃħ":3574,"NÃĺ":3575,"NÃ¼":3576,"NÃĮ":3577,"NÃŃ":3578,"NÃ¾":3579,"NÃĳ":3580,"NÃ³":3581,"NÃ¹":3582,"NcÃķ":3583,"NÃĥÃ®":3584,"NÃĽÃ½":3585,"OE":3586,"OF":3587,"OI":3588,"OM":3589,"OP":3590,"Ok":3591,"Oo":3592,"Op":3593,"Ot":3594,"Ox":3595,"Oy":3596,"OÃ¬":3597,"OÃĵ":3598,"OÃĺ":3599,"OÃ´":3600,"OÃİ":3601,"OÃľ":3602,"OÃı":3603,"OÃ¦":3604,"OÃł":3605,"OÃī":3606,"OÂµ":3607,"OÃµ":3608,"OIy":3609,"OKw":3610,"OaÃĲ":3611,"OÃ±P":3612,"ONÃħ":3613,"PE":3614,"PI":3615,"PJ":3616,"PN":3617,"PO":3618,"PQ":3619,"PS":3620,"PU":3621,"Pk":3622,"Pz":3623,"PÃģ":3624,"PÂº":3625,"PÃĵ":3626,"PÃ¯":3627,"PÃĺ":3628,"PÃĥ":3629,"PÃ¼":3630,"PÃĮ":3631,"PÃľ":3632,"PÃı":3633,"PÃĪ":3634,"PÃ§":3635,"PÃī":3636,"PÃį":3637,"PÃŁ":3638,"PFÃľ":3639,"PjK":3640,"PÃªH":3641,"PÃ³Ãł":3642,"QO":3643,"QV":3644,"Qf":3645,"Qi":3646,"Qk":3647,"Ql":3648,"Qm":3649,"Qn":3650,"Qu":3651,"Qx":3652,"QÃģ":3653,"QÃĸ":3654,"QÃ»":3655,"QÂº":3656,"QÃ¬":3657,"QÃ°":3658,"QÃ¯":3659,"QÃĺ":3660,"QÃ´":3661,"QÃĥ":3662,"QÃª":3663,"QÃ¼":3664,"QÃº":3665,"QÃ¨":3666,"QÃĢ":3667,"QÃĪ":3668,"QÂµ":3669,"QÂª":3670,"QÃĽ":3671,"QÃ£":3672,"QBg":3673,"QÃ¬Ã±":3674,"QUÃĦ":3675,"QÃ¡Ã°":3676,"QÃĬP":3677,"QÃ½ÃĪ":3678,"QÃłÃ®":3679,"QÃįo":3680,"QNi":3681,"RD":3682,"RH":3683,"RP":3684,"RX":3685,"Ra":3686,"Rm":3687,"Ru":3688,"RÃĤ":3689,"RÃ¬":3690,"RÃ´":3691,"RÃ¥":3692,"RÃ³":3693,"RÃ±":3694,"RÃĪ":3695,"RÃ§":3696,"RÃī":3697,"RÂµ":3698,"RÃµ":3699,"RÃ²":3700,"RÃŃÃ¬":3701,"RÃ¯ÃĻ":3702,"RÃįo":3703,"RAf":3704,"RIÃĪ":3705,"RJÃ¨":3706,"SA":3707,"SJ":3708,"SQ":3709,"SS":3710,"SZ":3711,"Sa":3712,"Sq":3713,"Ss":3714,"SÃģ":3715,"SÃķ":3716,"SÂº":3717,"SÃ¬":3718,"SÃ´":3719,"SÃ½":3720,"SÃĩ":3721,"SÃĭ":3722,"SÃŃ":3723,"SÃŀ":3724,"SÃ¶":3725,"SÃ¹":3726,"SÃ©":3727,"SÃ¥ÃĨ":3728,"SFÃĨ":3729,"SjqP":3730,"SÃĨÃĥ":3731,"SÃ¿c":3732,"SNt":3733,"TB":3734,"TG":3735,"TI":3736,"TO":3737,"TQ":3738,"TS":3739,"Tb":3740,"Tj":3741,"Tq":3742,"Tw":3743,"TÃķ":3744,"TÃ»":3745,"TÃĦ":3746,"TÃ°":3747,"TÃ¯":3748,"TÃĺ":3749,"TÃĩ":3750,"TÃľ":3751,"TÃĻ":3752,"TÃĢ":3753,"TÂµ":3754,"TÂª":3755,"TÂºÃĥ":3756,"TPR":3757,"TSÃ±":3758,"TÃĥÃ¨":3759,"UE":3760,"UF":3761,"UG":3762,"UL":3763,"UP":3764,"UQ":3765,"UT":3766,"UV":3767,"UY":3768,"Ua":3769,"Uj":3770,"Un":3771,"Us":3772,"UÂº":3773,"UÃĬ":3774,"UÃ½":3775,"UÃª":3776,"UÃľ":3777,"UÃŃ":3778,"UÃ³":3779,"UÃ±":3780,"UÃł":3781,"UÃ§":3782,"UÃ£":3783,"UFr":3784,"UÃĸg":3785,"UÃ©i":3786,"UÂªq":3787,"UCl":3788,"UIp":3789,"VK":3790,"VL":3791,"VU":3792,"VY":3793,"VZ":3794,"Va":3795,"Vd":3796,"Vj":3797,"Vx":3798,"VÃĸ":3799,"VÃ»":3800,"VÃĨ":3801,"VÃĵ":3802,"VÃ®":3803,"VÃħ":3804,"VÃĺ":3805,"VÃ´":3806,"VÃĩ":3807,"VÃ«":3808,"VÃľ":3809,"VÃ¾":3810,"VÃ±":3811,"Vvs":3812,"VAÃĤ":3813,"VNQ":3814,"VÃ¤Ã½":3815,"VCn":3816,"VSÃ¥ÃĨ":3817,"WE":3818,"WP":3819,"WR":3820,"WS":3821,"Wa":3822,"Wi":3823,"Wp":3824,"Wu":3825,"Wv":3826,"WÃģ":3827,"WÃķ":3828,"WÃĨ":3829,"WÃ¯":3830,"WÃª":3831,"WÃ¼":3832,"WÃº":3833,"WÃ¥":3834,"WÃĻ":3835,"WÃŀ":3836,"WÃĳ":3837,"WÃ¨":3838,"WÃ¸":3839,"WÃ¹":3840,"WÃī":3841,"WÃĿ":3842,"WÃļ":3843,"WÃµ":3844,"WÃĴ":3845,"WzF":3846,"WQz":3847,"WAÃĴ":3848,"WOÃİ":3849,"XJ":3850,"Xa":3851,"Xg":3852,"Xj":3853,"Xr":3854,"XÃĤ":3855,"XÃģ":3856,"XÃķ":3857,"XÃĨ":3858,"XÃĮ":3859,"XÃİ":3860,"XÃĢ":3861,"XÃ¦":3862,"XÃļ":3863,"XÂµ":3864,"XÃĽ":3865,"XPÃ¶":3866,"XÃļÃ¨":3867,"XKU":3868,"XRx":3869,"XxÃ¨":3870,"XÂºÃĵ":3871,"XÃĴÃ¸":3872,"XQf":3873,"YE":3874,"YJ":3875,"Yi":3876,"Yk":3877,"Yl":3878,"Yo":3879,"YÃĲ":3880,"YÃĵ":3881,"YÃ¯":3882,"YÃĩ":3883,"YÃĭ":3884,"YÃ«":3885,"YÃŃ":3886,"YÃ¾":3887,"YÃĳ":3888,"YÃ³":3889,"YÃĪ":3890,"YÃł":3891,"YÃ©":3892,"YÃ¤":3893,"Yhy":3894,"YmÃĬ":3895,"YÃĤÃ¹":3896,"YÃªÃ¬":3897,"YÃīf":3898,"YKÃİ":3899,"YLÃĵ":3900,"YWp":3901,"ZD":3902,"ZS":3903,"ZV":3904,"ZX":3905,"ZY":3906,"Zc":3907,"Zd":3908,"Zf":3909,"Zi":3910,"Zj":3911,"Zo":3912,"Zp":3913,"Zr":3914,"Zs":3915,"Zx":3916,"ZÃĸ":3917,"ZÃ¬":3918,"ZÃ°":3919,"ZÃ®":3920,"ZÃħ":3921,"ZÃº":3922,"ZÃı":3923,"ZÃ³":3924,"ZÃ©":3925,"ZÃļ":3926,"ZÂª":3927,"ZÃ¢":3928,"ZTi":3929,"ZXÃ¸":3930,"ZyÃĪ":3931,"ZÃīÃĦ":3932,"ZÃ¤Ãĥ":3933,"ZBÃŁU":3934,"ZLÃ«":3935,"ZMÃıÃ´":3936,"ZPÃ¯":3937,"[#":3938,"[$":3939,"[)":3940,"[.":3941,"[=":3942,"[>":3943,"[^":3944,"[ď":3945,"[ĕ":3946,"[ę":3947,"[Ĝ":3948,"[ġ":3949,"[Â»":3950,"[Â°":3951,"[ÂĢ":3952,"[Â¶":3953,"[ÂĨ":3954,"[Â£":3955,"[Â¸":3956,"[Â¨":3957,"[Â©":3958,"[Â¢":3959,"[ÂĹ":3960,"[ÂŁ":3961,"[.Âī":3962,"[>Â¿":3963,"[ĄÂĦ":3964,"[ÂĮÂ¯":3965,"[&}":3966,"\\\"":3967,"\\+":3968,"\\>":3969,"\\@":3970,"\\Ă":3971,"\\Ĉ":3972,"\\ĝ":3973,"\\ğ":3974,"\\Âģ":3975,"\\ÂĨ":3976,"\\Âı":3977,"\\Â©":3978,"\\Âĥ":3979,"\\Âĳ":3980,"\\Â§":3981,"\\Âİ":3982,"\\Âĩ":3983,"\\ÂĹ":3984,"\\Âĺ":3985,"\\ÂľÂĤ":3986,"\\@Â£":3987,"\\_Ě":3988,"\\~Â¬":3989,"\\Â¸Ē":3990,"\\!-":3991,"\\)Âı":3992,"](":3993,"]+":3994,"]=":3995,"]?":3996,"]]":3997,"]_":3998,"]Ć":3999,"]ė":4000,"]Ę":4001,"]ĝ":4002,"]Ğ":4003,"]Â»":4004,"]ÂĢ":4005,"]ÂĴ":4006,"]ÂĽ":4007,"]Âĭ":4008,"]Â£":4009,"]Â¦":4010,"]Âı":4011,"]ÂĶ":4012,"]Â·":4013,"]ÂĤ":4014,"]ÂŁ":4015,"]ÂĬ":4016,"]Âķ":4017,"]ÂŃ":4018,"]<:":4019,"]ÂĦÂ¶":4020,"]=|":4021,"]],":4022,"]ē^":4023,"]ÂĨĔ":4024,"]Ã·Â¯":4025,"]ÂĩÂķ":4026,"]ÂĺÂ¦":4027,"^*":4028,"^=":4029,"^?":4030,"^}":4031,"^ď":4032,"^Ĕ":4033,"^Ę":4034,"^Ě":4035,"^Ğ":4036,"^Â¡":4037,"^Â»":4038,"^Ã·":4039,"^Â¨":4040,"^ÂĶ":4041,"^Âŀ":4042,"^Âİ":4043,"^Â¢":4044,"^ÂĹ":4045,"^Â´":4046,"^ÂĬ":4047,"^Âļ":4048,"^Â¯":4049,"^'Â°":4050,"^đÂľ":4051,"^(@":4052,"_$":4053,"_)":4054,"_,":4055,"_>":4056,"_@":4057,"_]":4058,"_`":4059,"_ą":4060,"_đ":4061,"_ē":4062,"_Ĕ":4063,"_ġ":4064,"_Âĸ":4065,"_ÂĢ":4066,"_Â£":4067,"_ÂĻ":4068,"_Â¦":4069,"_Â¨":4070,"_Â©":4071,"_ÂŁ":4072,"_ÂĬ":4073,"_Âķ":4074,"_\"Â±":4075,"_]Â°":4076,"_\">":4077,"__ė":4078,"_āĚ":4079,"_Â¸Ĉ":4080,"_(đ":4081,"`#":4082,"`*":4083,"`/":4084,"`;":4085,"`[":4086,"`ā":4087,"`ă":4088,"`Ē":4089,"`ė":4090,"`ę":4091,"`Ě":4092,"`Â¿":4093,"`Âĸ":4094,"`Â®":4095,"`Â£":4096,"`Âĵ":4097,"`Âĥ":4098,"`Âĳ":4099,"`ÂŁ":4100,"`ĂĈ":4101,"`.Âļ":4102,"`=;Â§":4103,"aJ":4104,"aO":4105,"aT":4106,"aV":4107,"aY":4108,"ah":4109,"aq":4110,"aw":4111,"aÃ»":4112,"aÂº":4113,"aÃ¬":4114,"aÃĦ":4115,"aÃĨ":4116,"aÃĵ":4117,"aÃ¯":4118,"aÃĺ":4119,"aÃĭ":4120,"aÃĮ":4121,"aÃ¾":4122,"aÃ³":4123,"aÃ¸":4124,"aÃł":4125,"aÃī":4126,"aÃį":4127,"aÂª":4128,"aÃĽ":4129,"aÃ¢":4130,"adg":4131,"aPS":4132,"aSÃ¿c":4133,"bF":4134,"bP":4135,"bf":4136,"bp":4137,"bq":4138,"br":4139,"bw":4140,"bÃķ":4141,"bÃ°":4142,"bÃĵ":4143,"bÃ¯":4144,"bÃ¼":4145,"bÃ¥":4146,"bÃ¾":4147,"bÃĳ":4148,"bÃ¦":4149,"bÃ¶":4150,"bÃ±":4151,"bÃł":4152,"bÃ§":4153,"bÃĿ":4154,"bÃ¤":4155,"bÃļ":4156,"bÃį":4157,"bÃĶ":4158,"bJÃ¶":4159,"bOJ":4160,"bÃ¬Ã±":4161,"bDÃ´":4162,"bPX":4163,"bXI":4164,"bsÃ¹":4165,"bEo":4166,"cC":4167,"cF":4168,"cQ":4169,"cW":4170,"cd":4171,"cj":4172,"cw":4173,"cÃģ":4174,"cÃ»":4175,"cÃ¡":4176,"cÃĵ":4177,"cÃ¯":4178,"cÃ´":4179,"cÃ¼":4180,"cÃĮ":4181,"cÃİ":4182,"cÃ¸":4183,"cÃł":4184,"cÃ²":4185,"cÃĽ":4186,"cÃ¿":4187,"cIn":4188,"cyÂº":4189,"cPÃ£":4190,"cnÃģ":4191,"cÃĿU":4192,"cbDÃ´":4193,"dB":4194,"dM":4195,"dN":4196,"dP":4197,"dR":4198,"dS":4199,"dU":4200,"dY":4201,"dd":4202,"dj":4203,"dk":4204,"dl":4205,"do":4206,"dt":4207,"dÃ°":4208,"dÃ¯":4209,"dÃª":4210,"dÃĮ":4211,"dÃ«":4212,"dÃİ":4213,"dÃ³":4214,"dÃĪ":4215,"dÃł":4216,"dÃ¤":4217,"dÃĶ":4218,"dÂµ":4219,"dÃ²":4220,"dÃ¢":4221,"dÃ¿":4222,"dÃ£":4223,"dÃŁ":4224,"dDÃ»":4225,"dÃľÃ«":4226,"dÃŃÃĶ":4227,"dÃįU":4228,"dAÃŁ":4229,"daÃĮ":4230,"eB":4231,"eC":4232,"eI":4233,"eP":4234,"ei":4235,"el":4236,"em":4237,"eo":4238,"ew":4239,"eÃ»":4240,"eÃĲ":4241,"eÃ´":4242,"eÃĩ":4243,"eÃª":4244,"eÃĮ":4245,"eÃŃ":4246,"eÃŀ":4247,"eÃı":4248,"eÃĢ":4249,"eÃ¹":4250,"eÃĿ":4251,"eÃ¤":4252,"eÂµ":4253,"eÃŃÃ¬":4254,"eÃĳL":4255,"eNf":4256,"eÃ§M":4257,"eDCÃĩ":4258,"eGÃ½":4259,"eNj":4260,"fi":4261,"fl":4262,"fn":4263,"fu":4264,"fx":4265,"fÂº":4266,"fÃ¬":4267,"fÃĦ":4268,"fÃĵ":4269,"fÃ®":4270,"fÃĺ":4271,"fÃĥ":4272,"fÃª":4273,"fÃĮ":4274,"fÃ¾":4275,"fÃı":4276,"fÃ¦":4277,"fÃ¹":4278,"fÃĪ":4279,"fÃł":4280,"fÃ¢":4281,"fÃŃt":4282,"fVÃĮ":4283,"foÃĺ":4284,"fÃ´ÃĤ":4285,"fÃīa":4286,"fAÃħ":4287,"fOKw":4288,"fQu":4289,"fdÃ«":4290,"gB":4291,"gN":4292,"gP":4293,"ga":4294,"gd":4295,"ge":4296,"gf":4297,"gq":4298,"gs":4299,"gz":4300,"gÃĤ":4301,"gÃķ":4302,"gÃĸ":4303,"gÃĦ":4304,"gÃĲ":4305,"gÃ°":4306,"gÃ´":4307,"gÃĻ":4308,"gÃĳ":4309,"gÃ¨":4310,"gÃĢ":4311,"gÃ¦":4312,"gÃ§":4313,"gÃ¿":4314,"gOm":4315,"gwÃĸ":4316,"gAÃľ":4317,"hC":4318,"hJ":4319,"hN":4320,"hb":4321,"hh":4322,"hi":4323,"hs":4324,"hu":4325,"hx":4326,"hpo":4327,"hÃ¡":4328,"hÃĲ":4329,"hÃ®":4330,"hÃĬ":4331,"hÃĥ":4332,"hÃ¼":4333,"hÃĮ":4334,"hÃİ":4335,"hÃľ":4336,"hÃŃ":4337,"hÃı":4338,"hÃĳ":4339,"hÃ¨":4340,"hÃ¦":4341,"hÃł":4342,"hÃ§":4343,"hÃĿ":4344,"hÃ¤":4345,"hÃµ":4346,"hÃ¿":4347,"hcÃ±":4348,"hÃµÂº":4349,"hÃ»ÃĶ":4350,"hÃĴÃĴ":4351,"hFÃŁ":4352,"hIÃ¡":4353,"hPU":4354,"iB":4355,"iD":4356,"iO":4357,"iT":4358,"ie":4359,"ip":4360,"iq":4361,"iz":4362,"iÃ¬":4363,"iÃ°":4364,"iÃĬ":4365,"iÃ´":4366,"iÃĩ":4367,"iÃ¼":4368,"iÃĮ":4369,"iÃ«":4370,"iÃľ":4371,"iÃĻ":4372,"iÃ¦":4373,"iÃ¶":4374,"iÃĪ":4375,"iÃ©":4376,"iÃī":4377,"iÃį":4378,"iAI":4379,"iNÃĢ":4380,"iVo":4381,"ibÃº":4382,"iÃļQ":4383,"iAS":4384,"iJÃ²":4385,"iSjqP":4386,"jG":4387,"jH":4388,"jQ":4389,"jR":4390,"je":4391,"jf":4392,"jk":4393,"jn":4394,"js":4395,"ju":4396,"jw":4397,"jy":4398,"jÃģ":4399,"jÂº":4400,"jÃ¬":4401,"jÃĬ":4402,"jÃ´":4403,"jÃ½":4404,"jÃĩ":4405,"jÃĮ":4406,"jÃ«":4407,"jÃŀ":4408,"jÃı":4409,"jÃĳ":4410,"jÃ³":4411,"jÃļ":4412,"jÂµ":4413,"jÂª":4414,"jÃĴ":4415,"jco":4416,"jJÃķ":4417,"jQÃĿ":4418,"jDÃ®":4419,"jÃįr":4420,"jSÃŀ":4421,"kH":4422,"kK":4423,"kS":4424,"kV":4425,"km":4426,"kq":4427,"kt":4428,"kÃģ":4429,"kÃķ":4430,"kÃ¡":4431,"kÃĦ":4432,"kÃĲ":4433,"kÃ°":4434,"kÃ®":4435,"kÃ¯":4436,"kÃ«":4437,"kÃº":4438,"kÃŃ":4439,"kÃŀ":4440,"kÃ¸":4441,"kÃĪ":4442,"kÃł":4443,"kÂµ":4444,"kÃ¢":4445,"kQÃĿ":4446,"kÃµÂº":4447,"kEÃĳ":4448,"kÃĢÃħ":4449,"kIi":4450,"lG":4451,"lH":4452,"lJ":4453,"lO":4454,"lU":4455,"lV":4456,"lX":4457,"lY":4458,"lv":4459,"lÃ»":4460,"lÃĥ":4461,"lÃ½":4462,"lÃİ":4463,"lÃ¾":4464,"lÃ¨":4465,"lÃł":4466,"lÃĶ":4467,"lÃ¢":4468,"lÃ¿":4469,"lxZ":4470,"lWÃļ":4471,"lZs":4472,"mH":4473,"mS":4474,"mU":4475,"mm":4476,"mu":4477,"mÃĸ":4478,"mÃĲ":4479,"mÃĵ":4480,"mÃĭ":4481,"mÃľ":4482,"mÃŃ":4483,"mÃ¾":4484,"mÃ¨":4485,"mÃ¸":4486,"mÃ¢":4487,"mcharged":4488,"mÃİI":4489,"mÃ¡Âµ":4490,"mPÃĢ":4491,"mTU":4492,"mhÃ¥":4493,"mÃķÃĭ":4494,"mÃĺY":4495,"mÃĪp":4496,"mNO":4497,"mOÃµ":4498,"mQl":4499,"maÃĵ":4500,"nD":4501,"nP":4502,"nU":4503,"nf":4504,"nh":4505,"nl":4506,"ns":4507,"nt":4508,"nu":4509,"nz":4510,"nnd":4511,"nÃĤ":4512,"nÃ°":4513,"nÃ¯":4514,"nÃĭ":4515,"nÃ«":4516,"nÃı":4517,"nÃµ":4518,"nwi":4519,"nÃĸÃģ":4520,"nÃĮÃĥ":4521,"nÃĻÃ´":4522,"nÃĢÃĩ":4523,"nÃ¹Ãº":4524,"nHK":4525,"nIÃ£":4526,"nMg":4527,"nXÃļ":4528,"nYÃĲ":4529,"oD":4530,"oE":4531,"oH":4532,"oI":4533,"oM":4534,"oV":4535,"oh":4536,"ol":4537,"oy":4538,"oof":4539,"oÃ¬":4540,"oÃĲ":4541,"oÃĵ":4542,"oÃ´":4543,"oÃº":4544,"oÃİ":4545,"oÃĳ":4546,"oÃį":4547,"oÂµ":4548,"oÃ¢":4549,"oÃ£":4550,"opole":4551,"oÃ¹Ã®":4552,"oCÃ£":4553,"oWÃª":4554,"oYKÃİ":4555,"oaÃĽ":4556,"okÃ®":4557,"pC":4558,"pD":4559,"pK":4560,"pO":4561,"pQ":4562,"pU":4563,"pn":4564,"pp":4565,"pr":4566,"pt":4567,"pÃķ":4568,"pÂº":4569,"pÃĨ":4570,"pÃ®":4571,"pÃ¾":4572,"pÃĳ":4573,"pÃ¶":4574,"pÃ¤":4575,"pÂª":4576,"pÃ¢":4577,"pÃĴ":4578,"pÃ¿":4579,"pÃŁ":4580,"pGÃħ":4581,"pHC":4582,"pDÃİ":4583,"pÃıH":4584,"pÃ§Ã»":4585,"pJx":4586,"pWAÃĴ":4587,"pjw":4588,"qD":4589,"qH":4590,"qI":4591,"qK":4592,"qd":4593,"qe":4594,"qq":4595,"qz":4596,"qÃ¬":4597,"qÃĵ":4598,"qÃĬ":4599,"qÃĥ":4600,"qÃ¼":4601,"qÃº":4602,"qÃŀ":4603,"qÃĳ":4604,"qÃĢ":4605,"qÃ¦":4606,"qÃ¹":4607,"qÃļ":4608,"qÃŁ":4609,"qÃķm":4610,"qAZ":4611,"qCÃ¨":4612,"qVj":4613,"qbÃ¾":4614,"rM":4615,"rb":4616,"rh":4617,"rm":4618,"rÃ»":4619,"rÂº":4620,"rÃĲ":4621,"rÃĺ":4622,"rÃ´":4623,"rÃĩ":4624,"rÃĭ":4625,"rÃ«":4626,"rÃ¾":4627,"rÃı":4628,"rÃĳ":4629,"rÃ¶":4630,"rÃł":4631,"rÃµ":4632,"rÃŁ":4633,"rÃ¡Ã§":4634,"rAZ":4635,"rÃļs":4636,"rKB":4637,"rZc":4638,"rcF":4639,"rjJÃķ":4640,"rkÃŃ":4641,"sA":4642,"se":4643,"sh":4644,"sk":4645,"sm":4646,"sr":4647,"sz":4648,"sÃģ":4649,"sÃĦ":4650,"sÃĨ":4651,"sÃĬ":4652,"sÃ´":4653,"sÃº":4654,"sÃŃ":4655,"sÃ¾":4656,"sÃĳ":4657,"sÃī":4658,"sÃĶ":4659,"sÃµ":4660,"sÃ¢":4661,"sÃ²R":4662,"sna":4663,"sÃ¨Âª":4664,"sMÃİ":4665,"sPÃĺ":4666,"sQUÃĦ":4667,"sXxÃ¨":4668,"sfÃĥ":4669,"tA":4670,"tD":4671,"tE":4672,"tL":4673,"tQ":4674,"tT":4675,"tu":4676,"tthe":4677,"tÃ®":4678,"tÃĩ":4679,"tÃĮ":4680,"tÃ«":4681,"tÃ¨":4682,"tÃ¸":4683,"tÃ¦":4684,"tÃ±":4685,"tÃļ":4686,"tÃĶ":4687,"tom":4688,"trait":4689,"tAÃ«":4690,"tNf":4691,"trH":4692,"tÂºC":4693,"tÃ³S":4694,"tBÃ¤":4695,"tJÃ¾":4696,"tPÃªH":4697,"tXÃ¦":4698,"tZÃħ":4699,"tcW":4700,"tnÃĭ":4701,"uA":4702,"uC":4703,"uQ":4704,"uZ":4705,"ui":4706,"uv":4707,"uw":4708,"uy":4709,"uÃĸ":4710,"uÃ»":4711,"uÃħ":4712,"uÃĥ":4713,"uÃĮ":4714,"uÃŃ":4715,"uÃ¨":4716,"uÃ¸":4717,"uÃĢ":4718,"uÃī":4719,"uÂµ":4720,"uÃ¢":4721,"uÃŁ":4722,"uÃķm":4723,"uÃ¬r":4724,"uÃĭÃĲ":4725,"uGU":4726,"ucÃ¾":4727,"uÃ½ÃĢ":4728,"uÃĳO":4729,"uKÃŀ":4730,"uNÃĳ":4731,"uTÃ¯":4732,"ujQÃĿ":4733,"vD":4734,"vL":4735,"vO":4736,"vc":4737,"vi":4738,"vv":4739,"vw":4740,"vÃĤ":4741,"vÂº":4742,"vÃ¯":4743,"vÃĥ":4744,"vÃ¥":4745,"vÃİ":4746,"vÃĳ":4747,"vÃ¨":4748,"vÃł":4749,"vÃŁ":4750,"vRÃĸ":4751,"vbÃĭ":4752,"vÃĸR":4753,"vGÃĲ":4754,"vJÃĦ":4755,"wL":4756,"wX":4757,"wg":4758,"wj":4759,"wn":4760,"wp":4761,"ws":4762,"wv":4763,"wÃĤ":4764,"wÂº":4765,"wÃ¬":4766,"wÃ´":4767,"wÃ¥":4768,"wÃ³":4769,"wÃĢ":4770,"wÃ©":4771,"wÃ¤":4772,"wÃµ":4773,"wÂª":4774,"wDp":4775,"wcÃ¼":4776,"xS":4777,"xr":4778,"xÃĸ":4779,"xÃ¡":4780,"xÃĮ":4781,"xÃ¾":4782,"xÃŀ":4783,"xÃĿ":4784,"xÃį":4785,"xÃ²":4786,"xÃŁ":4787,"xÃŀÃľ":4788,"xDÃİ":4789,"xÃ¸Âª":4790,"xÃ¶m":4791,"xGÃ¸":4792,"xPQ":4793,"xVÃĩ":4794,"yA":4795,"yM":4796,"yO":4797,"yR":4798,"yi":4799,"yl":4800,"yÃĨ":4801,"yÃ¯":4802,"yÃĥ":4803,"yÃ¼":4804,"yÃĭ":4805,"yÃĮ":4806,"yÃ«":4807,"yÃº":4808,"yÃľ":4809,"yÃĻ":4810,"yÃŀ":4811,"yÃĢ":4812,"yÃ¤":4813,"yÃį":4814,"yÂµ":4815,"yÃĴ":4816,"yÃ£":4817,"yOu":4818,"yÃķm":4819,"yQÃįo":4820,"yjH":4821,"zA":4822,"zI":4823,"zJ":4824,"zQ":4825,"zV":4826,"zX":4827,"zn":4828,"zÃĤ":4829,"zÂº":4830,"zÃ¡":4831,"zÃĨ":4832,"zÃ°":4833,"zÃĵ":4834,"zÃĥ":4835,"zÃº":4836,"zÃİ":4837,"zÃļ":4838,"zÃį":4839,"zÃ²":4840,"zÃ£":4841,"zÃŁ":4842,"zNÃ¤":4843,"zÃĲÃ¦":4844,"zKi":4845,"zUL":4846,"zZTi":4847,"zdÃ³":4848,"zlÃ¨":4849,"zsÃ´":4850,"{!":4851,"{'":4852,"{+":4853,"{:":4854,"{]":4855,"{`":4856,"{}":4857,"{ă":4858,"{ą":4859,"{ĕ":4860,"{Ě":4861,"{ě":4862,"{Ğ":4863,"{ġ":4864,"{Âľ":4865,"{Âģ":4866,"{Â¶":4867,"{ÂĻ":4868,"{Â©":4869,"{Âĳ":4870,"{ÂĶ":4871,"{Âĩ":4872,"{ÂĹ":4873,"{Âļ":4874,"{Â¥":4875,"{Âĺ":4876,"{|Ğ":4877,"{ĞÂ·":4878,"{#ÂĻ":4879,"{(Âĩ":4880,"{ÂĨÂĪ":4881,"{Âı`":4882,"{(ć":4883,"|'":4884,"|/":4885,"|@":4886,"|Ā":4887,"|ā":4888,"|ą":4889,"|Ć":4890,"|Ĉ":4891,"|ē":4892,"|Â»":4893,"|Â®":4894,"|Âı":4895,"|Â©":4896,"|Âĥ":4897,"|Âŀ":4898,"|Â·":4899,"|Âİ":4900,"|Âī":4901,"|Â«":4902,"|Âĺ":4903,"|ÂĦ":4904,"|ÂĿ":4905,"|}}":4906,"|ďÂ¡":4907,"|Â´Âķ":4908,"|!;!":4909,"}#":4910,"}$":4911,"}+":4912,"}.":4913,"}:":4914,"};":4915,"}<":4916,"}>":4917,"}{":4918,"}ā":4919,"}Ĉ":4920,"}Đ":4921,"}Ę":4922,"}ě":4923,"}Ĝ":4924,"}ÂĽ":4925,"}Â¶":4926,"}ÂĲ":4927,"}Ã·":4928,"}Âĥ":4929,"}Â¤":4930,"}ÂĬ":4931,"}ÂĿ":4932,"}Âķ":4933,"}ÂĤÂĭ":4934,"}#?":4935,"}Â±Ć":4936,"}Âı%":4937,"}!`":4938,"}=ÂĽ":4939,"~+":4940,"~.":4941,"~<":4942,"~`":4943,"~Ĉ":4944,"~Ď":4945,"~Đ":4946,"~Ě":4947,"~ğ":4948,"~Â¡":4949,"~Â¿":4950,"~Â©":4951,"~Âļ":4952,"~Â¯":4953,"~Â¥":4954,"~ÂĦ":4955,"~Âķē":4956,"~ÂĢĎ":4957,"~Â°Â¥":4958,"Ā$":4959,"Ā)":4960,"Ā.":4961,"Ā@":4962,"Āă":4963,"ĀĈ":4964,"ĀĎ":4965,"Āđ":4966,"Āē":4967,"ĀĚ":4968,"Āě":4969,"ĀÂ°":4970,"ĀÂ¿":4971,"ĀÂĸ":4972,"ĀÂĭ":4973,"ĀÂ¦":4974,"ĀÂ©":4975,"ĀÂĶ":4976,"ĀÂī":4977,"ĀÂ¢":4978,"ĀÂĤ":4979,"ĀÂļ":4980,"ĀÂ¶^":4981,"ĀÂĥ#":4982,"Ā\"ē":4983,"ĀćÂĻ":4984,"ĀďĈ":4985,"ĀĐÃ·":4986,"Ā=ā":4987,"Ā[ď":4988,"Ā]ė":4989,"ā!":4990,"ā*":4991,"ā.":4992,"ā^":4993,"āĈ":4994,"āĎ":4995,"āė":4996,"āġ":4997,"āÂ°":4998,"āÂľ":4999,"āÂĨ":5000,"āÂĭ":5001,"āÃ·":5002,"āÂ·":5003,"āÂİ":5004,"āÃĹ":5005,"āÂ´":5006,"āÂŁ":5007,"āÂĬ":5008,"āÂ¯":5009,"āÂĿ":5010,"āÂĮ":5011,"ā)Â¡":5012,"ā+Âı":5013,"ā?Ė":5014,"ā@ÂĦÂ¶":5015,"ā|Âĺ":5016,"Ă+":5017,"Ă-":5018,"Ă<":5019,"Ă?":5020,"Ă^":5021,"Ă`":5022,"Ăć":5023,"ĂĐ":5024,"ĂĒ":5025,"Ăē":5026,"ĂÂ®":5027,"ĂÂ£":5028,"ĂÂ¦":5029,"ĂÂı":5030,"ĂÂĳ":5031,"ĂÂ¬":5032,"ĂÂĩ":5033,"ĂÂŁ":5034,"ĂÂĺ":5035,"ĂÂĦ":5036,"ĂÂĮ":5037,"ĂÂ±Â£":5038,"Ă#Â®":5039,"Ă>Â¶":5040,"ĂĀÃ·":5041,"ĂĎĖ":5042,"ĂÂ»Âİ":5043,"ĂÂİ;":5044,"ă\"":5045,"ă%":5046,"ă.":5047,"ă>":5048,"ă^":5049,"ă|":5050,"ă~":5051,"ăĝ":5052,"ăÂ±":5053,"ăÂ¿":5054,"ăÂĳ":5055,"ăÂİ":5056,"ăÂ¬":5057,"ăÂ´":5058,"ăÂ«":5059,"ăÂĬ":5060,"ăÂ¥":5061,"ăÂĮ":5062,"ăÂĩÂ¤":5063,"ăăĜ":5064,"ăĒÂ´":5065,"ăÂŁ<":5066,"ă:ÂĦ":5067,"ă<ÂĽ":5068,"ă@Ē":5069,"Ą\"":5070,"Ą'":5071,"Ą^":5072,"ĄĀ":5073,"Ąą":5074,"Ąē":5075,"ĄĔ":5076,"ĄĖ":5077,"Ąę":5078,"ĄĞ":5079,"ĄÂ¿":5080,"ĄÂ¶":5081,"ĄÂ¸":5082,"ĄÂĻ":5083,"ĄÃ·":5084,"ĄÂ¨":5085,"ĄÂ·":5086,"ĄÂĹ":5087,"ĄÂŁ":5088,"ĄÂ«":5089,"ĄÂĿ":5090,"Ą\\ą":5091,"Ą|+":5092,"ĄăÂĶ":5093,"ĄğÃĹ":5094,"ĄġÂĻ":5095,"ĄÂŃĄ":5096,"Ą-`":5097,"Ą:ÂĻ":5098,"Ą<>ÂĢ":5099,"Ą{Âĳ":5100,"ĄāÂĮ":5101,"ąĔ":5102,"ąĝ":5103,"ąġ":5104,"ąÂĽ":5105,"ąÂĭ":5106,"ąÂ£":5107,"ąÂ·":5108,"ąÂŁ":5109,"ąÂį":5110,"ąÂĺ":5111,"ąÂĮ":5112,"ąÂ®Â«":5113,"ą}Â¿":5114,"ąÂıÂ¶":5115,"ą\"Â¨":5116,"ą>ÂĿ":5117,"Ć/":5118,"Ć_":5119,"Ćā":5120,"Ćć":5121,"Ćę":5122,"Ćğ":5123,"ĆÂ¡":5124,"ĆÂĢ":5125,"ĆÂĪ":5126,"ĆÂĽ":5127,"ĆÂ¶":5128,"ĆÂ£":5129,"ĆÂ¸":5130,"ĆÂĳ":5131,"ĆÂİ":5132,"ĆÂĤ":5133,"ĆÂŁ":5134,"ĆÂĺ":5135,"ĆāÂĻ":5136,"Ć**":5137,"Ćā;":5138,"ĆÂģ+":5139,"ĆÂŀÂģ":5140,"ĆÂ¥.":5141,"ĆÂĮÂ¨":5142,"Ć:Âķ":5143,"Ć;ÂĴğ":5144,"ć$":5145,"ć?":5146,"ć@":5147,"ć|":5148,"ćć":5149,"ćĎ":5150,"ćē":5151,"ćĖ":5152,"ćĚ":5153,"ćĜ":5154,"ćġ":5155,"ćÂ¡":5156,"ćÂ¸":5157,"ćÂı":5158,"ćÂ¨":5159,"ćÂİ":5160,"ćÂĤ":5161,"ćÂ«ė":5162,"ć/ĕ":5163,"ćÃ·Â¡":5164,"ć/Ę":5165,"Ĉ#":5166,"Ĉ*":5167,"Ĉ`":5168,"Ĉ}":5169,"ĈĆ":5170,"ĈĒ":5171,"Ĉĕ":5172,"Ĉė":5173,"ĈĚ":5174,"Ĉğ":5175,"Ĉġ":5176,"ĈÂľ":5177,"ĈÂ®":5178,"ĈÂ¶":5179,"ĈÂ£":5180,"ĈÂĻ":5181,"ĈÂ¦":5182,"ĈÂ¨":5183,"ĈÂ©":5184,"ĈÂĶ":5185,"ĈÂī":5186,"ĈÂ¯":5187,"Ĉ;|":5188,"ĈęĂ":5189,"ĈÂĪě":5190,"Ĉ+,":5191,"ĈĄÂŃĄ":5192,"ĊÂħ":5193,"čĉ":5194,"Ď\"":5195,"Ď*":5196,"Ď+":5197,"Ď]":5198,"ĎĐ":5199,"ĎĔ":5200,"Ďę":5201,"Ďĝ":5202,"ĎÂĢ":5203,"ĎÂģ":5204,"ĎÂı":5205,"ĎÂ¢":5206,"ĎÂ´":5207,"Ď]Â±":5208,"ĎĞ;":5209,"ĎĀē":5210,"ĎāÂĬ":5211,"ď#":5212,"ď&":5213,"ď-":5214,"ď/":5215,"ď;":5216,"ď]":5217,"ď_":5218,"ď`":5219,"ďā":5220,"ďĔ":5221,"ďė":5222,"ďÂ»":5223,"ďÂĢ":5224,"ďÂĽ":5225,"ďÂ¶":5226,"ďÂĻ":5227,"ďÂĥ":5228,"ďÂŁ":5229,"ď[ÃĹ":5230,"ďÂĳÂī":5231,"ďÂĦ\\":5232,"ďÂľÂį":5233,"ďÂĹ|":5234,"ď\"ć":5235,"ď:ę":5236,"Đ$":5237,"Đ%":5238,"Đ*":5239,"Đ-":5240,"Đ>":5241,"Đ@":5242,"Đ[":5243,"ĐĂ":5244,"ĐĄ":5245,"ĐĒ":5246,"Đė":5247,"ĐĘ":5248,"Đġ":5249,"ĐÂĪ":5250,"ĐÂĴ":5251,"ĐÂ¸":5252,"ĐÂĲ":5253,"ĐÂĥ":5254,"ĐÂŀ":5255,"ĐÂ·":5256,"ĐÂİ":5257,"ĐÂ¬":5258,"ĐÂ¤":5259,"ĐÂį":5260,"ĐÂļ":5261,"ĐÂ¨\\":5262,"Đ#\\":5263,"Đ%ć":5264,"Đ:Ğ":5265,"Đ|Âģ":5266,"ĐĖÂİ":5267,"Đ^(@":5268,"đ&":5269,"đ?":5270,"đ@":5271,"đ{":5272,"đ|":5273,"đĀ":5274,"đĄ":5275,"đĔ":5276,"đĘ":5277,"đę":5278,"đĞ":5279,"đġ":5280,"đÂ±":5281,"đÂ¿":5282,"đÂĪ":5283,"đÂ¸":5284,"đÂĵ":5285,"đÂı":5286,"đÂĳ":5287,"đÂŀ":5288,"đÂĬ":5289,"đÂ¯":5290,"đÂĺ":5291,"đÂĮ":5292,"đÂĩÂ¤":5293,"đ?Â¦":5294,"đ(/":5295,"đ)ě":5296,"đ,ğ":5297,"đďÂľÂį":5298,"Ē#":5299,"Ē-":5300,"Ē/":5301,"Ē:":5302,"Ē`":5303,"Ēć":5304,"ĒĖ":5305,"ĒĚ":5306,"Ēğ":5307,"ĒÂ®":5308,"ĒÂ¸":5309,"ĒÂı":5310,"ĒÂ©":5311,"ĒÂĥ":5312,"ĒÂ«":5313,"ĒÂ®ÂĨ":5314,"Ē]ÂĲ":5315,"Ē,Âĵ":5316,"ĒāÂ»":5317,"ĒĎÂĤ":5318,"Ē;ě":5319,"Ē{|Ğ":5320,"ē$":5321,"ē*":5322,"ē-":5323,"ē.":5324,"ē{":5325,"ē|":5326,"ēĆ":5327,"ēĒ":5328,"ēĕ":5329,"ēĖ":5330,"ēė":5331,"ēĚ":5332,"ēĞ":5333,"ēÂ¡":5334,"ēÂ¿":5335,"ēÂĢ":5336,"ēÂĭ":5337,"ēÂ¦":5338,"ēÃ·":5339,"ēÂī":5340,"ēÂĩ":5341,"ēÂĹ":5342,"ēÂ´":5343,"ēÂ¥":5344,"ēÂķ":5345,"ēÂ©ď":5346,"ē|Âľ":5347,"ēĝĚ":5348,"ē;Âĸ":5349,"ē=Âİ":5350,"ē\\!-":5351,"ē_,":5352,"ēāÃ·":5353,"ēĎÂ¢":5354,"Ĕ&":5355,"Ĕ*":5356,"Ĕ,":5357,"Ĕ-":5358,"Ĕ?":5359,"Ĕā":5360,"ĔĂ":5361,"ĔĄ":5362,"Ĕć":5363,"Ĕĕ":5364,"ĔÂ»":5365,"ĔÂ°":5366,"ĔÂľ":5367,"ĔÂ¶":5368,"ĔÃ·":5369,"ĔÂĥ":5370,"ĔÂĳ":5371,"ĔÂ·":5372,"ĔÂŁ":5373,"ĔÂĺ":5374,"ĔÂŃ":5375,"Ĕ*ÂĨ":5376,"ĔÂĤÂ°":5377,"Ĕ)Â¶":5378,"Ĕ+Âģ":5379,"Ĕ/Â±":5380,"Ĕ_Âĸ":5381,"ĔĀÂ¢":5382,"ĕ&":5383,"ĕ'":5384,"ĕ~":5385,"ĕą":5386,"ĕě":5387,"ĕĜ":5388,"ĕĝ":5389,"ĕÂ¡":5390,"ĕÂ¿":5391,"ĕÂģ":5392,"ĕÂ£":5393,"ĕÂĻ":5394,"ĕÂĳ":5395,"ĕÂŀ":5396,"ĕÂī":5397,"ĕÂ«":5398,"ĕÂį":5399,"ĕÂļ":5400,"ĕÂ¥":5401,"ĕÂĦ":5402,"ĕ@}":5403,"ĕ:Â¤":5404,"ĕ`!":5405,"ĕąĜ":5406,"ĕ%ĝ":5407,"ĕ{+":5408,"ĕĄÂĹ":5409,"ĕćē":5410,"Ė\"":5411,"Ė*":5412,"ĖĂ":5413,"Ėą":5414,"ĖĆ":5415,"ĖÂ»":5416,"ĖÂ°":5417,"ĖÂĸ":5418,"ĖÂĨ":5419,"ĖÂ¦":5420,"ĖÃ·":5421,"ĖÂı":5422,"ĖÂĶ":5423,"ĖÂ§":5424,"ĖÂ·":5425,"ĖÂī":5426,"ĖÂĤ":5427,"ĖÂĩ":5428,"ĖÂ«":5429,"ĖÂĬ":5430,"ĖÂĺ":5431,"Ė{%":5432,"ĖĄć":5433,"ĖÂĥ>":5434,"Ė[Ě":5435,"ĖĜ\\":5436,"ĖÂ´ÂĴ":5437,"Ė=ą":5438,"Ė[Â©":5439,"ĖĐ|Âģ":5440,"ė$":5441,"ė'":5442,"ė+":5443,"ė@":5444,"ė^":5445,"ė|":5446,"ė~":5447,"ėė":5448,"ėě":5449,"ėğ":5450,"ėÂ±":5451,"ėÂĢ":5452,"ėÂĻ":5453,"ėÂĶ":5454,"ėÂ§":5455,"ėÂ·":5456,"ėÂİ":5457,"ėÂī":5458,"ėÂį":5459,"ėÂĺ":5460,"ė{%":5461,"ėĞÂ¶":5462,"ėÂıÂ¶":5463,"ėÂŀ(":5464,"ėÂ¢Âĺ":5465,"ė}:":5466,"Ę%":5467,"Ę>":5468,"Ę]":5469,"Ę}":5470,"Ęā":5471,"ĘĄ":5472,"ĘĈ":5473,"ĘĚ":5474,"Ęě":5475,"Ęġ":5476,"ĘÂ±":5477,"ĘÂ¶":5478,"ĘÂĻ":5479,"ĘÂĲ":5480,"ĘÂİ":5481,"ĘÂĤ":5482,"ĘÂĩ":5483,"ĘÂ´":5484,"ĘÂį":5485,"ĘÂ¯":5486,"Ę<Â±":5487,"Ę],":5488,"Ę|ÂĨ":5489,"ĘđĖ":5490,"ĘÂĵÂĢ":5491,"ĘÃĹÂ¡":5492,"Ę{Â©":5493,"ĘĐÂ¸":5494,"ĘėÂĢ":5495,"ę#":5496,"ę'":5497,"ę;":5498,"ę?":5499,"ę]":5500,"ę~":5501,"ęĄ":5502,"ęĎ":5503,"ęđ":5504,"ęĜ":5505,"ęğ":5506,"ęÂĢ":5507,"ęÂĻ":5508,"ęÂĵ":5509,"ęÂı":5510,"ęÂ¨":5511,"ęÂĥ":5512,"ęÂ·":5513,"ęÂİ":5514,"ęÂī":5515,"ęÂ¬":5516,"ęÂ¤":5517,"ę=Ă":5518,"ęÂĴÂĥ":5519,"ę!=":5520,"ę&ÃĹ":5521,"ęÂ¦Â¶":5522,"Ě)":5523,"Ě*":5524,"Ě+":5525,"Ě<":5526,"Ě~":5527,"ĚĂ":5528,"ĚĄ":5529,"Ěć":5530,"Ěė":5531,"ĚĚ":5532,"ĚÂĢ":5533,"ĚÂĽ":5534,"ĚÂĨ":5535,"ĚÂ¦":5536,"ĚÂı":5537,"ĚÂĥ":5538,"ĚÂĳ":5539,"Ě)ė":5540,"Ě_ÂŃ":5541,"ĚÂ¸Ē":5542,"ĚÂ©Â¬":5543,"ĚÂ¢Âĺ":5544,"Ě.ÂĤ":5545,"ĚĈ}":5546,"ĚďÂĥ":5547,"ě!":5548,"ě\"":5549,"ě$":5550,"ě&":5551,"ě,":5552,"ě/":5553,"ě;":5554,"ě@":5555,"ě~":5556,"ěă":5557,"ěą":5558,"ěĆ":5559,"ěć":5560,"ěď":5561,"ěđ":5562,"ěĒ":5563,"ěġ":5564,"ěÂ¡":5565,"ěÂ±":5566,"ěÂĢ":5567,"ěÂģ":5568,"ěÂĳ":5569,"ěÂį":5570,"ěÂļ":5571,"ěÂĿ":5572,"ěÂĮ":5573,"ěÂŃ":5574,"ě`Ĉ":5575,"ěÂ¡Âĳ":5576,"ě\"Â±":5577,"ě?Âĵ":5578,"ěďÂİ":5579,"ěÂĩ?":5580,"ěÂ´ğ":5581,"ě'Â¸":5582,"ě[.":5583,"ěĎ]Â±":5584,"Ĝ\"":5585,"Ĝ#":5586,"Ĝ(":5587,"Ĝ-":5588,"Ĝ.":5589,"Ĝ@":5590,"Ĝ[":5591,"Ĝ_":5592,"ĜĂ":5593,"Ĝė":5594,"ĜĜ":5595,"ĜÂ±":5596,"ĜÂ®":5597,"ĜÂ¶":5598,"ĜÂĻ":5599,"ĜÂ¦":5600,"ĜÂĲ":5601,"ĜÂĵ":5602,"ĜÂ·":5603,"ĜÂĩ":5604,"ĜÂ´":5605,"ĜÂ¤":5606,"ĜÂĬ":5607,"ĜÂĺ":5608,"ĜÂĮ":5609,"Ĝ<~":5610,"ĜÃ·ÂŃ":5611,"ĜÂ«Â®":5612,"Ĝ%Â±Â°":5613,"Ĝ+'Âı":5614,"Ĝ>Âĵ":5615,"ĜĈÂ¦":5616,"ĝ=":5617,"ĝ>":5618,"ĝă":5619,"ĝĆ":5620,"ĝĔ":5621,"ĝĕ":5622,"ĝÂ¡":5623,"ĝÂ¿":5624,"ĝÂģ":5625,"ĝÂı":5626,"ĝÂ¢":5627,"ĝÂ´":5628,"ĝÂŁ":5629,"ĝÂį":5630,"ĝąÂĲ":5631,"ĝÂ°Âī":5632,"ĝ<ÂĨ":5633,"Ğ$":5634,"Ğ=":5635,"ĞĀ":5636,"Ğą":5637,"ĞĐ":5638,"Ğđ":5639,"ĞĒ":5640,"Ğē":5641,"ĞĖ":5642,"Ğė":5643,"Ğġ":5644,"ĞÂ»":5645,"ĞÂ©":5646,"ĞÂ¢":5647,"ĞÂ¯":5648,"ĞÂĮ":5649,"ĞÂķ":5650,"Ğ^ÃĹ":5651,"ĞąÂ¸":5652,"ĞĎ)":5653,"Ğ#}Â£":5654,"ĞāÂ°":5655,"ĞďÂĢ":5656,"ğ\"":5657,"ğ$":5658,"ğ[":5659,"ğ\\":5660,"ğĀ":5661,"ğĎ":5662,"ğĕ":5663,"ğĜ":5664,"ğğ":5665,"ğÂ°":5666,"ğÂĪ":5667,"ğÂĴ":5668,"ğÂĭ":5669,"ğÂı":5670,"ğÂĬ":5671,"ğÂĦ":5672,"ğ!=":5673,"ğ/Â¬":5674,"ğ>ĕ":5675,"ğÂ¦Â¢":5676,"ğ}Ã·":5677,"ğĄ{Âĳ":5678,"ğĈÂĶ":5679,"Ġ&":5680,"Ġ(":5681,"Ġ)":5682,"Ġ+":5683,"Ġ0":5684,"Ġ<":5685,"ĠH":5686,"ĠJ":5687,"ĠR":5688,"ĠS":5689,"ĠY":5690,"Ġ[":5691,"Ġf":5692,"Ġo":5693,"Ġq":5694,"Ġs":5695,"Ġz":5696,"Ġą":5697,"ĠĈ":5698,"ĠĐ":5699,"ĠĔ":5700,"Ġĕ":5701,"ĠĚ":5702,"ĠÂ»":5703,"ĠÃĦ":5704,"ĠÃĲ":5705,"ĠÃ°":5706,"ĠÂĴ":5707,"ĠÂ¸":5708,"ĠÃĩ":5709,"ĠÂĵ":5710,"ĠÂ¨":5711,"ĠÂĶ":5712,"ĠÂŀ":5713,"ĠÃİ":5714,"ĠÃ¾":5715,"ĠÂī":5716,"ĠÃ³":5717,"ĠÃĢ":5718,"ĠÂ¢":5719,"ĠÃł":5720,"ĠÃ©":5721,"ĠÃī":5722,"ĠÂ«":5723,"ĠÂĬ":5724,"ĠÃĽ":5725,"ĠÃ¢":5726,"ĠÂ¯":5727,"ĠÂķ":5728,"ĠÃĤÃī":5729,"Ġ<đ":5730,"ĠMU":5731,"ĠVq":5732,"ĠĀÂ´":5733,"ĠÃĬÃĿ":5734,"ĠÂģÂ¸":5735,"ĠÂı`":5736,"ĠÂ¤Âĺ":5737,"Ġ\"=":5738,"Ġ$Âļ":5739,"Ġ-Ā":5740,"ĠAR":5741,"ĠCÂµ":5742,"ĠGw":5743,"Ġ\\@Â£":5744,"Ġ]]":5745,"ĠāÂĨ":5746,"Ġă@Ē":5747,"ĠĆÂ¸":5748,"ĠēĎÂ¢":5749,"ġ#":5750,"ġ%":5751,"ġ'":5752,"ġ+":5753,"ġğ":5754,"ġÂ°":5755,"ġÂĨ":5756,"ġÂ£":5757,"ġÂ¨":5758,"ġÂĶ":5759,"ġÂ¢":5760,"ġÃĹ":5761,"ġÂĹ":5762,"ġÂ´":5763,"ġÂ¤":5764,"ġÂĺ":5765,"ġÂķ":5766,"ġ`{":5767,"ġąÂ©":5768,"ġĈÂ»":5769,"ġ\"Ć":5770,"ġ@*^":5771,"taÃĿ":5772,"ĠtÃİ":5773,"headg":5774,"ndammaster":5775,"ceÃ»ÃĲ":5776,"asof":5777,"assoul":5778,"asUnder":5779,"asfell":5780,"asthat":5781,"asthethe":5782,"ascovers":5783,"asIt":5784,"asfate":5785,"astears":5786,"asIn":5787,"aswhatever":5788,"asBlack":5789,"asmaythe":5790,"asofunconquerable":5791,"asstraitof":5792,"asFindsas":5793,"ĠrÃı":5794,"lepole":5795,"theam":5796,"thechance":5797,"theofthe":5798,"theBeyond":5799,"thehave":5800,"theMy":5801,"theclutch":5802,"theOut":5803,"thecried":5804,"thethis":5805,"thehead":5806,"theunbowed":5807,"thegods":5808,"theFinds":5809,"theIof":5810,"theamthe":5811,"theheadthe":5812,"thecoversthe":5813,"theamunconquerable":5814,"thethatand":5815,"thecaptainunbowed":5816,"thefromof":5817,"thewraththethis":5818,"thetom":5819,"hade":5820,"ofpole":5821,"ofam":5822,"ofst":5823,"ofhow":5824,"ofLooms":5825,"ofAnd":5826,"ofnor":5827,"ofshade":5828,"ofIt":5829,"oftears":5830,"ofcried":5831,"ofhead":5832,"ofFinds":5833,"ofpit":5834,"ofmaster":5835,"ofscroll":5836,"ofIthe":5837,"ofnotand":5838,"ofForof":5839,"ofwrathof":5840,"ofHowyet":5841,"oftow":5842,"ofpoleas":5843,"ofasam":5844,"ofOutmy":5845,"ofHowIof":5846,"ofgodssoul":5847,"ofHorrorthe":5848,"ofasIn":5849,"meI":5850,"meme":5851,"mecaptain":5852,"mechance":5853,"mecharged":5854,"mehave":5855,"meMy":5856,"metears":5857,"mebe":5858,"meBlack":5859,"meunbowed":5860,"meHorror":5861,"mepit":5862,"mefellthe":5863,"meIand":5864,"mepunishmentsAnd":5865,"meofthebloody":5866,"ÃĤG":5867,"ÃĤQ":5868,"ÃĤg":5869,"ÃĤk":5870,"ÃĤp":5871,"ÃĤr":5872,"ÃĤw":5873,"ÃĤx":5874,"ÃĤÃķ":5875,"ÃĤÂº":5876,"ÃĤÃĨ":5877,"ÃĤÃ°":5878,"ÃĤÃ½":5879,"ÃĤÃª":5880,"ÃĤÃ¼":5881,"ÃĤÃľ":5882,"ÃĤÃŃ":5883,"ÃĤÃĻ":5884,"ÃĤÃŀ":5885,"ÃĤÃı":5886,"ÃĤÃ¸":5887,"ÃĤÃł":5888,"ÃĤÃį":5889,"ÃĤÂª":5890,"ÃĤÃ¢":5891,"ÃĤÃ£":5892,"ÃĤÃŁ":5893,"ÃĤLY":5894,"ÃĤÃ¶q":5895,"ÃĤEGÃµ":5896,"ÃģA":5897,"ÃģO":5898,"ÃģS":5899,"ÃģX":5900,"Ãģp":5901,"Ãģw":5902,"Ãģy":5903,"ÃģÃĲ":5904,"ÃģÃĵ":5905,"ÃģÃ¯":5906,"ÃģÃĬ":5907,"ÃģÃĺ":5908,"ÃģÃ´":5909,"ÃģÃ¼":5910,"ÃģÃĮ":5911,"ÃģÃĻ":5912,"ÃģÃ¨":5913,"ÃģÃ³":5914,"ÃģÃĢ":5915,"ÃģÃ¹":5916,"ÃģÃĪ":5917,"ÃģÃł":5918,"ÃģÃ¢":5919,"ÃģKF":5920,"ÃģqÃ½":5921,"ÃģÃĶÂº":5922,"ÃģIU":5923,"ÃģLÃ¢":5924,"ÃģNÃĲ":5925,"ÃģTO":5926,"ÃģsÃŃ":5927,"ÃģxPQ":5928,"isof":5929,"ispole":5930,"issoul":5931,"ishave":5932,"isshall":5933,"istears":5934,"isunbowed":5935,"isII":5936,"isofBeyond":5937,"iswithof":5938,"isBeyondthe":5939,"isthisshade":5940,"isgodsIt":5941,"ispitof":5942,"isOutam":5943,"ithpo":5944,"Â¡)":5945,"Â¡Ā":5946,"Â¡ą":5947,"Â¡Ď":5948,"Â¡Ē":5949,"Â¡ę":5950,"Â¡Âĸ":5951,"Â¡ÂĽ":5952,"Â¡Âĭ":5953,"Â¡Â£":5954,"Â¡Âı":5955,"Â¡Âĥ":5956,"Â¡ÂĶ":5957,"Â¡Â§":5958,"Â¡Â·":5959,"Â¡ÂĤ":5960,"Â¡Â¤":5961,"Â¡`Â¬":5962,"Â¡}đ":5963,"Â¡ĀÂ¤":5964,"Â¡ėĘ":5965,"Â¡ĚÂģ":5966,"Â¡$ēĄ":5967,"Â¡]ÂĴ":5968,"Â¡āÂĭ":5969,"Â¡ĄÂĻ":5970,"Â¡ĜÂ¦":5971,"Â¡ĞďÂĢ":5972,"ÃķD":5973,"ÃķJ":5974,"ÃķP":5975,"ÃķU":5976,"ÃķW":5977,"Ãķb":5978,"Ãķk":5979,"Ãķo":5980,"Ãķp":5981,"Ãķq":5982,"Ãķr":5983,"Ãķv":5984,"ÃķÃĤ":5985,"ÃķÃģ":5986,"ÃķÃĸ":5987,"ÃķÃ¡":5988,"ÃķÃĦ":5989,"ÃķÃĨ":5990,"ÃķÃ®":5991,"ÃķÃ½":5992,"ÃķÃŃ":5993,"ÃķÃ¨":5994,"ÃķÃ¶":5995,"ÃķÃ¹":5996,"ÃķÃ©":5997,"ÃķÃ¤":5998,"ÃķÂµ":5999,"ÃķÃ¢":6000,"ÃķÃĴ":6001,"ÃķÃ¿":6002,"ÃķBL":6003,"ÃķoÃĺ":6004,"ÃķrÃĬ":6005,"ÃķÃģM":6006,"ÃķÃĻÂª":6007,"ÃķÃ±I":6008,"ÃķÃīw":6009,"Â²1":6010,"Â²2":6011,"Â²3":6012,"Â²5":6013,"Â²7":6014,"Â²9":6015,"Â»+":6016,"Â»,":6017,"Â»:":6018,"Â»_":6019,"Â»{":6020,"Â»Ą":6021,"Â»ď":6022,"Â»Đ":6023,"Â»đ":6024,"Â»Ğ":6025,"Â»Â¡":6026,"Â»Âģ":6027,"Â»ÂĨ":6028,"Â»ÂĻ":6029,"Â»Â§":6030,"Â»ÃĹ":6031,"Â»ÂĤ":6032,"Â»Â¯":6033,"Â»:Â§":6034,"Â»_Ė":6035,"Â»Ē|":6036,"Â»Â±Â°":6037,"Â»ÂľÂ¥":6038,"Â»$đ":6039,"Â»)]":6040,"Â»-ÂĬ":6041,"Â»^ÂĹ":6042,"Â»Ď]":6043,"Â»ěÂ¡Âĳ":6044,"Â»ğÂĪ":6045,"Â±!":6046,"Â±-":6047,"Â±=":6048,"Â±\\":6049,"Â±_":6050,"Â±}":6051,"Â±Ĉ":6052,"Â±Đ":6053,"Â±Ē":6054,"Â±Ĕ":6055,"Â±Ę":6056,"Â±ě":6057,"Â±Â¿":6058,"Â±Â¸":6059,"Â±ÂĻ":6060,"Â±ÂĲ":6061,"Â±Âİ":6062,"Â±Â´":6063,"Â±ĂÂļ":6064,"Â±ÂıĞ":6065,"Â±Âīď":6066,"Â±;ÃĹ":6067,"Â±|ā":6068,"Â±ēÃ·":6069,"Â±ĖÂ°":6070,"Â±ĞĐ":6071,"ÃĸK":6072,"ÃĸU":6073,"ÃĸV":6074,"ÃĸX":6075,"Ãĸi":6076,"Ãĸo":6077,"Ãĸp":6078,"Ãĸq":6079,"Ãĸv":6080,"Ãĸx":6081,"ÃĸÃ°":6082,"ÃĸÃħ":6083,"ÃĸÃĩ":6084,"ÃĸÃ¼":6085,"ÃĸÃĮ":6086,"ÃĸÃİ":6087,"ÃĸÃľ":6088,"ÃĸÃŃ":6089,"ÃĸÃ¨":6090,"ÃĸÃ¶":6091,"ÃĸÃ±":6092,"ÃĸÃĪ":6093,"ÃĸÃ¤":6094,"ÃĸÃµ":6095,"ÃĸÃ²":6096,"ÃĸÃĽ":6097,"ÃĸÃ¿":6098,"ÃĸÃŁ":6099,"Ãĸug":6100,"ÃĸÃ¬r":6101,"ÃĸÃŃD":6102,"ÃĸÃĤÃ¹":6103,"ÃĸÃ®r":6104,"ÃĸÃ«Ãł":6105,"ÃĸYE":6106,"ÃĸfÃ®":6107,"Ãĸui":6108,"Â°$":6109,"Â°+":6110,"Â°.":6111,"Â°[":6112,"Â°|":6113,"Â°Ė":6114,"Â°ě":6115,"Â°Â±":6116,"Â°Â¿":6117,"Â°ÂĪ":6118,"Â°Â¬":6119,"Â°Âĩ":6120,"Â°ÂĬ":6121,"Â°Â¯":6122,"Â°ÂĦ":6123,"Â°}}":6124,"Â°Â«Âĳ":6125,"Â°Ăā":6126,"Â°ĈÂ»":6127,"Â°ď(":6128,"Â°ĐĔ":6129,"Â°ěÂĵ":6130,"Â°@=#":6131,"Â°]<:":6132,"Â°^Â´":6133,"Â°_Â¦":6134,"Â°ĀÂĶ":6135,"Â°ĈÂ©":6136,"Â°ĎÂģ":6137,"Â°ďÂĽ":6138,"Â°ęÂ¤":6139,"Â³2":6140,"Â³3":6141,"Â³4":6142,"Â³Â¼":6143,"Ã»G":6144,"Ã»M":6145,"Ã»S":6146,"Ã»U":6147,"Ã»X":6148,"Ã»e":6149,"Ã»m":6150,"Ã»s":6151,"Ã»Ãĵ":6152,"Ã»Ã®":6153,"Ã»Ã¯":6154,"Ã»Ãĺ":6155,"Ã»Ãĥ":6156,"Ã»Ã½":6157,"Ã»Ã¥":6158,"Ã»Ãİ":6159,"Ã»ÃŃ":6160,"Ã»Ãŀ":6161,"Ã»Ã³":6162,"Ã»ÃĢ":6163,"Ã»Ã¶":6164,"Ã»Âµ":6165,"Ã»ÃĽ":6166,"Ã»Ã£":6167,"Ã»ÃĳÃŁ":6168,"Ã»DÃĪ":6169,"Ã»Si":6170,"Ã»pÃł":6171,"Ã»ÃªÃİ":6172,"Ã»ÃĳÃį":6173,"Ã»KÃķ":6174,"Ã»LÃĿ":6175,"Ã»VÃĺ":6176,"Ã»YÃŃ":6177,"Ã»aÂº":6178,"Ã»pÃ¶":6179,"Ã»uC":6180,"Ã»ÃĤÃı":6181,"ÂºF":6182,"ÂºI":6183,"ÂºR":6184,"ÂºX":6185,"Âºb":6186,"Âºf":6187,"Âºh":6188,"ÂºÃĨ":6189,"ÂºÃ®":6190,"ÂºÃħ":6191,"ÂºÃĬ":6192,"ÂºÃ½":6193,"ÂºÃľ":6194,"ÂºÃŀ":6195,"ÂºÃĳ":6196,"ÂºÃł":6197,"ÂºÃ§":6198,"ÂºÃī":6199,"ÂºÂª":6200,"ÂºÃŁ":6201,"ÂºzÃ¯":6202,"ÂºJQ":6203,"ÂºgÃµ":6204,"ÂºiÂª":6205,"ÂºÃĦi":6206,"ÂºPÂº":6207,"ÂºYÃ«":6208,"Âºga":6209,"Ã¡L":6210,"Ã¡N":6211,"Ã¡U":6212,"Ã¡v":6213,"Ã¡Ãģ":6214,"Ã¡Ã»":6215,"Ã¡ÃĬ":6216,"Ã¡Ã´":6217,"Ã¡Ã½":6218,"Ã¡Ã¶":6219,"Ã¡Ãį":6220,"Ã¡Ã¿":6221,"Ã¡aÃª":6222,"Ã¡hy":6223,"Ã¡Ã¥ÃĨ":6224,"Ã¡gÃ¥":6225,"Ã¡nj":6226,"Ã¡ÃĩÃĵ":6227,"Ã¡GÃĩ":6228,"Ã¡MÃĴ":6229,"Ã¡OÃı":6230,"Ã¡oE":6231,"Ã¡ÃĤÃ¸":6232,"Ã¬A":6233,"Ã¬B":6234,"Ã¬F":6235,"Ã¬I":6236,"Ã¬J":6237,"Ã¬W":6238,"Ã¬Âº":6239,"Ã¬Ã¡":6240,"Ã¬Ã¬":6241,"Ã¬Ã°":6242,"Ã¬Ã´":6243,"Ã¬Ã½":6244,"Ã¬Ãĩ":6245,"Ã¬Ã¼":6246,"Ã¬Ã¥":6247,"Ã¬Ãŀ":6248,"Ã¬Ã§":6249,"Ã¬Âª":6250,"Ã¬Ã¢":6251,"Ã¬ÃĴ":6252,"Ã¬ÃŁ":6253,"Ã¬hq":6254,"Ã¬Ã¸i":6255,"Ã¬Qz":6256,"Ã¬aÃ°":6257,"Ã¬nÃĺ":6258,"Ã¬ÃŃÃĶ":6259,"Ã¬cÃ»":6260,"Ã¬nÃĮÃĥ":6261,"Ã¬ws":6262,"Ã¬ÃĤQ":6263,"ÃĦC":6264,"ÃĦE":6265,"ÃĦH":6266,"ÃĦO":6267,"ÃĦW":6268,"ÃĦa":6269,"ÃĦl":6270,"ÃĦo":6271,"ÃĦr":6272,"ÃĦv":6273,"ÃĦÃĵ":6274,"ÃĦÃ½":6275,"ÃĦÃ«":6276,"ÃĦÃ¾":6277,"ÃĦÃ¨":6278,"ÃĦÃĪ":6279,"ÃĦÃµ":6280,"ÃĦÃĴ":6281,"ÃĦÃ£":6282,"ÃĦÃľK":6283,"ÃĦUÃĬ":6284,"ÃĦbf":6285,"ÃĦhPU":6286,"ÃĦnÃĻÃ´":6287,"ÃĦpt":6288,"ÃĦÃĸÃĽ":6289,"ÃĦÃ»Ãĺ":6290,"ÃĨA":6291,"ÃĨD":6292,"ÃĨg":6293,"ÃĨm":6294,"ÃĨp":6295,"ÃĨÃĤ":6296,"ÃĨÃķ":6297,"ÃĨÃĬ":6298,"ÃĨÃĩ":6299,"ÃĨÃ«":6300,"ÃĨÃ¶":6301,"ÃĨÃªÃĽ":6302,"ÃĨOR":6303,"ÃĨÃħÃł":6304,"ÃĨOIy":6305,"ÃĨYÃĩ":6306,"ÃĨqD":6307,"ÃĨrKB":6308,"ÃĨtÃ«":6309,"ÃĨyl":6310,"ÃĲB":6311,"ÃĲD":6312,"ÃĲE":6313,"ÃĲH":6314,"ÃĲI":6315,"ÃĲM":6316,"ÃĲQ":6317,"ÃĲR":6318,"ÃĲc":6319,"ÃĲd":6320,"ÃĲm":6321,"ÃĲÃĦ":6322,"ÃĲÃĬ":6323,"ÃĲÃ¼":6324,"ÃĲÃ«":6325,"ÃĲÃ¾":6326,"ÃĲÃĳ":6327,"ÃĲÃ³":6328,"ÃĲÃ¹":6329,"ÃĲÃ²":6330,"ÃĲWZ":6331,"ÃĲÃĤO":6332,"ÃĲÃļw":6333,"ÃĲGbj":6334,"ÃĲuÃĢ":6335,"ÃĲÃģÃ¹":6336,"Â¿(":6337,"Â¿.":6338,"Â¿Ă":6339,"Â¿ć":6340,"Â¿Ğ":6341,"Â¿ğ":6342,"Â¿Â¿":6343,"Â¿ÂĴ":6344,"Â¿Âľ":6345,"Â¿Â®":6346,"Â¿Â¶":6347,"Â¿Âĥ":6348,"Â¿ÂĶ":6349,"Â¿Â·":6350,"Â¿ÂĹ":6351,"Â¿Âļ":6352,"Â¿ÂĦ":6353,"Â¿ÂĬ@":6354,"Â¿%(":6355,"Â¿/Â¬":6356,"Â¿\"Âķ":6357,"Â¿+/":6358,"Â¿-Âį":6359,"Â¿ĐĒ":6360,"Â¿đĄ":6361,"Â¿Ēğ":6362,"Â¿ĖÃ·":6363,"Ã°H":6364,"Ã°R":6365,"Ã°U":6366,"Ã°V":6367,"Ã°f":6368,"Ã°m":6369,"Ã°y":6370,"Ã°z":6371,"Ã°Âº":6372,"Ã°ÃĨ":6373,"Ã°Ã°":6374,"Ã°Ãĳ":6375,"Ã°Ã¸":6376,"Ã°Ãł":6377,"Ã°ÃĿ":6378,"Ã°ÃĽ":6379,"Ã°Ãıi":6380,"Ã°jJ":6381,"Ã°Ã¯U":6382,"Ã°ÃĴÃ¸":6383,"Ã°ÃŁÃ¨":6384,"Ã°YÃ©":6385,"Ã°dÃ¿":6386,"Ã°rÃĳ":6387,"Ã°wÃµ":6388,"Âĸ!":6389,"Âĸ+":6390,"Âĸ.":6391,"Âĸ>":6392,"Âĸ@":6393,"Âĸą":6394,"ÂĸĒ":6395,"Âĸē":6396,"Âĸĝ":6397,"ÂĸĞ":6398,"ÂĸÂ¡":6399,"ÂĸÂľ":6400,"ÂĸÂĽ":6401,"ÂĸÂ®":6402,"ÂĸÂ¶":6403,"ÂĸÂĭ":6404,"ÂĸÂ¦":6405,"ÂĸÂı":6406,"ÂĸÂĶ":6407,"ÂĸÂ·":6408,"ÂĸÃĹ":6409,"ÂĸÂĹ":6410,"ÂĸÂļ":6411,"ÂĸÂĮ":6412,"ÂĸÂķē":6413,"Âĸ/ÂĽ":6414,"ÂĸÂ¸Ĝ":6415,"Âĸ#Â§":6416,"ÂĸĘÂŁ":6417,"ÂĸĂÂĳ":6418,"ÂĸăÂİ":6419,"Â¹4":6420,"Â¹9":6421,"Â¹Â¹":6422,"Â¹Â¼":6423,"ÂĢ>":6424,"ÂĢ^":6425,"ÂĢ}":6426,"ÂĢÂ¿":6427,"ÂĢÂĸ":6428,"ÂĢÂģ":6429,"ÂĢÂĻ":6430,"ÂĢÂĲ":6431,"ÂĢÂ´":6432,"ÂĢÂį":6433,"ÂĢÂ¯":6434,"ÂĢÂĺ":6435,"ÂĢÂĿ":6436,"ÂĢÂŀÂģ":6437,"ÂĢ:Ě":6438,"ÂĢ=Âĭ":6439,"ÂĢ\\Âİ":6440,"ÂĢğĜ":6441,"ÂĢÂ°|":6442,"ÂĪ'":6443,"ÂĪ(":6444,"ÂĪ)":6445,"ÂĪ;":6446,"ÂĪ<":6447,"ÂĪ?":6448,"ÂĪ@":6449,"ÂĪ_":6450,"ÂĪā":6451,"ÂĪď":6452,"ÂĪĚ":6453,"ÂĪĝ":6454,"ÂĪğ":6455,"ÂĪÂ»":6456,"ÂĪÂĵ":6457,"ÂĪÂĶ":6458,"ÂĪÂĬ":6459,"ÂĪÂį":6460,"ÂĪÂķ":6461,"ÂĪÂŃ":6462,"ÂĪ?Âĵ":6463,"ÂĪĘ@":6464,"ÂĪÂ¿[":6465,"ÂĪÂĲÂĩ":6466,"ÂĪÃ·Â¡":6467,"ÂĪ!&":6468,"ÂĪ%Â¡":6469,"ÂĪ^Ě":6470,"ÂĪĎ\"":6471,"ÂĪēÂĭ":6472,"ÂĪĖĜ\\":6473,"ÂĪęğ":6474,"ÂĪÂ°ĎÂģ":6475,"ÃĵM":6476,"ÃĵQ":6477,"ÃĵR":6478,"ÃĵS":6479,"Ãĵc":6480,"Ãĵe":6481,"Ãĵi":6482,"Ãĵo":6483,"Ãĵv":6484,"ÃĵÃģ":6485,"ÃĵÃ°":6486,"ÃĵÃĬ":6487,"ÃĵÃ´":6488,"ÃĵÃª":6489,"ÃĵÃĭ":6490,"ÃĵÃĮ":6491,"ÃĵÃİ":6492,"ÃĵÃ³":6493,"ÃĵÃł":6494,"ÃĵÃ§":6495,"ÃĵÃį":6496,"ÃĵÂª":6497,"ÃĵÃ²":6498,"ÃĵÃĮÃĽ":6499,"ÃĵjÃ¡":6500,"ÃĵGE":6501,"ÃĵÃħy":6502,"ÃĵÃ¾Ãģ":6503,"ÃĵCÃļ":6504,"ÃĵIÃĦA":6505,"ÃĵOÂµ":6506,"ÃĵgÃ¨":6507,"ÃĵqVj":6508,"ÃĵÃĤÃŁ":6509,"ÃĵÃĲI":6510,"ÂĴ'":6511,"ÂĴ<":6512,"ÂĴ^":6513,"ÂĴā":6514,"ÂĴĘ":6515,"ÂĴÂ»":6516,"ÂĴÂĸ":6517,"ÂĴÂľ":6518,"ÂĴÂ£":6519,"ÂĴÂ¦":6520,"ÂĴÂ¢":6521,"ÂĴÂ¬":6522,"ÂĴÂŁ":6523,"ÂĴÂ¤":6524,"ÂĴÂŃ":6525,"ÂĴÂ¸Ĝ":6526,"ÂĴĘÂĶ":6527,"ÂĴÂ°Âĵ":6528,"ÂĴÂĩġ":6529,"ÂĴÂĹÂ¥":6530,"ÂĴ(ÂĲ":6531,"ÂĴ\\Âĥ":6532,"ÂĴĚ.ÂĤ":6533,"ÂĴÂ±Â¸":6534,"Âľ\"":6535,"Âľ*":6536,"Âľ@":6537,"Âľ[":6538,"Âľ`":6539,"ÂľĀ":6540,"ÂľĂ":6541,"Âľă":6542,"ÂľĈ":6543,"Âľĕ":6544,"ÂľĖ":6545,"ÂľÂ°":6546,"ÂľÂģ":6547,"ÂľÂĽ":6548,"ÂľÂ¶":6549,"ÂľÂ©":6550,"ÂľÂİ":6551,"ÂľÂ¢":6552,"ÂľÂ´":6553,"ÂľÂ¤":6554,"ÂľÂĿ":6555,"Âľ'Â°":6556,"Âľ+`":6557,"Âľ,đ":6558,"ÂľÂ£ÃĹ":6559,"ÂľÃ·Â¬":6560,"ÂľÂļĔ":6561,"Âľ>Ĝ":6562,"ÂľđĔ":6563,"ÂľĜĜ":6564,"ÂľÂ»ğÂĪ":6565,"ÂľÂ¿Âļ":6566,"Ã®A":6567,"Ã®Q":6568,"Ã®c":6569,"Ã®j":6570,"Ã®l":6571,"Ã®Ã¯":6572,"Ã®ÃĬ":6573,"Ã®Ã´":6574,"Ã®Ãĩ":6575,"Ã®Ã«":6576,"Ã®Ãľ":6577,"Ã®Ã¾":6578,"Ã®Ãı":6579,"Ã®Ã¶":6580,"Ã®Ã±":6581,"Ã®Ã¤":6582,"Ã®Ãµ":6583,"Ã®ÃĮÃµ":6584,"Ã®gÃ¤":6585,"Ã®Ã®W":6586,"Ã®BÃµ":6587,"Ã®TÃ°":6588,"Ã®bÃĶ":6589,"Ã®iz":6590,"Ã®Ã»VÃĺ":6591,"Ã®ÃĵÃħy":6592,"Ã¯G":6593,"Ã¯Q":6594,"Ã¯d":6595,"Ã¯m":6596,"Ã¯r":6597,"Ã¯t":6598,"Ã¯v":6599,"Ã¯y":6600,"Ã¯Ãĸ":6601,"Ã¯Ã»":6602,"Ã¯Ã´":6603,"Ã¯Ãĥ":6604,"Ã¯Ã½":6605,"Ã¯Ã³":6606,"Ã¯Ã©":6607,"Ã¯ÃĶ":6608,"Ã¯ÃĴ":6609,"Ã¯ÂºS":6610,"Ã¯Ã¾Ã¶":6611,"Ã¯AÃŀ":6612,"Ã¯gÃĲ":6613,"ÃħF":6614,"ÃħY":6615,"Ãħd":6616,"Ãħs":6617,"ÃħÃĤ":6618,"ÃħÃĸ":6619,"Ãħow":6620,"ÃħÃĨ":6621,"ÃħÃ´":6622,"ÃħÃĮ":6623,"ÃħÃ¥":6624,"ÃħÃı":6625,"ÃħÃĳ":6626,"ÃħÃ¹":6627,"ÃħÃļ":6628,"ÃħqÃ«":6629,"ÃħÃ®Ãº":6630,"ÃħAN":6631,"ÃħMÃĿ":6632,"ÃħÃķÃĮ":6633,"ÃħÃ¡Ãº":6634,"ÃħÃħE":6635,"ÃħÃĿH":6636,"ÃħCVÃĿ":6637,"ÃħNÃ¾":6638,"Ãħgs":6639,"ÃħtQ":6640,"ÃĬR":6641,"ÃĬe":6642,"ÃĬh":6643,"ÃĬÃĤ":6644,"ÃĬÃ¬":6645,"ÃĬÃĨ":6646,"ÃĬÃĬ":6647,"ÃĬÃ½":6648,"ÃĬÃ«":6649,"ÃĬÃĻ":6650,"ÃĬÃĢ":6651,"ÃĬÃ¶":6652,"ÃĬÃł":6653,"ÃĬIÃ¶":6654,"ÃĬNÃ¢":6655,"ÃĬRG":6656,"ÃĬYÃĥ":6657,"ÃĬÂªK":6658,"ÃĬYo":6659,"ÃĺD":6660,"ÃĺU":6661,"Ãĺg":6662,"Ãĺk":6663,"Ãĺu":6664,"Ãĺv":6665,"Ãĺz":6666,"ÃĺÃ®":6667,"ÃĺÃħ":6668,"ÃĺÃĬ":6669,"ÃĺÃĺ":6670,"ÃĺÃª":6671,"ÃĺÃº":6672,"ÃĺÃľ":6673,"ÃĺÃĻ":6674,"ÃĺÃŀ":6675,"ÃĺÃ³":6676,"ÃĺÃ¸":6677,"ÃĺÃ¦":6678,"ÃĺÃ¹":6679,"ÃĺÃµ":6680,"ÃĺKÃ¨":6681,"ÃĺmÃ³":6682,"ÃĺÃİÃ¶":6683,"ÃĺÃĴÃĽ":6684,"ÃĺÃ£q":6685,"ÃĺWÃģ":6686,"ÃĺhÃ¡":6687,"ÃĺÃ¬Ã½":6688,"ÃĺÃĲM":6689,"ÃĺÃ¯Ã³":6690,"Âģ$":6691,"Âģ;":6692,"Âģ<":6693,"Âģ_":6694,"Âģ|":6695,"Âģ}":6696,"ÂģĄ":6697,"Âģą":6698,"ÂģĔ":6699,"ÂģÂĭ":6700,"ÂģÂİ":6701,"ÂģÂī":6702,"ÂģÂĤ":6703,"ÂģÂĮ":6704,"Âģ}Â£":6705,"ÂģĆÂĻ":6706,"Âģ,]":6707,"Âģ]Ē":6708,"Âģěā":6709,"Âģ%Â«ę":6710,"ÂģěďÂİ":6711,"ÂģÂ»Âģ":6712,"ÂĽ)":6713,"ÂĽ;":6714,"ÂĽ\\":6715,"ÂĽ_":6716,"ÂĽą":6717,"ÂĽĈ":6718,"ÂĽē":6719,"ÂĽė":6720,"ÂĽğ":6721,"ÂĽÂ±":6722,"ÂĽÂ¿":6723,"ÂĽÂĥ":6724,"ÂĽÂŀ":6725,"ÂĽÂĤ":6726,"ÂĽÂŁ":6727,"ÂĽÂĬ":6728,"ÂĽÂĮ":6729,"ÂĽ&ÃĹ":6730,"ÂĽ(_":6731,"ÂĽ|Ĕ":6732,"ÂĽāĚ":6733,"ÂĽÂĲĚ":6734,"ÂĽÂ«`":6735,"ÂĽ*Â¬":6736,"ÂĽĖ\"":6737,"ÂĽĘĈ":6738,"Ã´A":6739,"Ã´D":6740,"Ã´H":6741,"Ã´O":6742,"Ã´Q":6743,"Ã´a":6744,"Ã´e":6745,"Ã´p":6746,"Ã´Ã¬":6747,"Ã´Ã°":6748,"Ã´Ãħ":6749,"Ã´Ã«":6750,"Ã´Ãľ":6751,"Ã´ÃĻ":6752,"Ã´Ã¨":6753,"Ã´ÃĢ":6754,"Ã´Ãł":6755,"Ã´Ãį":6756,"Ã´ÃĶ":6757,"Ã´Âµ":6758,"Ã´ÃĴ":6759,"Ã´TÃ¬":6760,"Ã´ÃªÃĽ":6761,"Ã´HÃ½":6762,"Ã´Wh":6763,"Ã´ÃĲT":6764,"Ã´ÃĬÃĮ":6765,"Ã´Ãĭh":6766,"Ã´Zr":6767,"Ã´lJ":6768,"Ã´mÃŃ":6769,"Ã´qÃ¬":6770,"Ã´Ã»m":6771,"ÃĥA":6772,"ÃĥI":6773,"ÃĥM":6774,"ÃĥN":6775,"ÃĥO":6776,"ÃĥV":6777,"ÃĥW":6778,"Ãĥb":6779,"Ãĥi":6780,"Ãĥj":6781,"Ãĥq":6782,"Ãĥv":6783,"ÃĥÃ¾":6784,"ÃĥÃŀ":6785,"ÃĥÃı":6786,"ÃĥÃ±":6787,"ÃĥÃł":6788,"ÃĥÃī":6789,"ÃĥÃ¤":6790,"ÃĥÂµ":6791,"ÃĥÃĤÃī":6792,"ÃĥhX":6793,"ÃĥvÃº":6794,"ÃĥÃ°X":6795,"ÃĥÃ½ÃĪ":6796,"ÃĥYÃīf":6797,"ÃĥÃĥv":6798,"Â®*":6799,"Â®.":6800,"Â®/":6801,"Â®?":6802,"Â®ă":6803,"Â®ē":6804,"Â®ę":6805,"Â®ě":6806,"Â®Â£":6807,"Â®ÂĻ":6808,"Â®Âĥ":6809,"Â®ÂĶ":6810,"Â®Â¬":6811,"Â®ÂĮ":6812,"Â®Â¬&":6813,"Â®'ę":6814,"Â®ĀÂ¶^":6815,"Â®ĄÂ¶":6816,"Â®ĕÂĳ":6817,"Â®ÂģĆÂĻ":6818,"Â¶$":6819,"Â¶?":6820,"Â¶Ą":6821,"Â¶Ĉ":6822,"Â¶Ĕ":6823,"Â¶ě":6824,"Â¶ġ":6825,"Â¶Â¡":6826,"Â¶ÂĢ":6827,"Â¶ÂĪ":6828,"Â¶Âľ":6829,"Â¶ÂĽ":6830,"Â¶ÂĻ":6831,"Â¶Âĵ":6832,"Â¶ÂĶ":6833,"Â¶Âİ":6834,"Â¶ÃĹ":6835,"Â¶Âĩ":6836,"Â¶Âį":6837,"Â¶Âĺ":6838,"Â¶ÂĦ":6839,"Â¶[]":6840,"Â¶ęÂĬ":6841,"Â¶Â±<":6842,"Â¶Â¸Â±":6843,"Â¶Ã·ā":6844,"Â¶!ÂĮ#":6845,"Â¶.Â§":6846,"Â¶Đ:Ğ":6847,"Â¶ĖÂĤ":6848,"ÂĨ)":6849,"ÂĨ+":6850,"ÂĨ;":6851,"ÂĨ=":6852,"ÂĨĀ":6853,"ÂĨć":6854,"ÂĨē":6855,"ÂĨę":6856,"ÂĨě":6857,"ÂĨÃ·":6858,"ÂĨÂĶ":6859,"ÂĨÂ§":6860,"ÂĨÂİ":6861,"ÂĨÂķ":6862,"ÂĨÂĩĂ":6863,"ÂĨ-Â§":6864,"ÂĨĈÂ¸":6865,"ÂĨĐĔ":6866,"ÂĨ$ÂĽ":6867,"ÂĨ<Â£":6868,"ÂĨĆğ":6869,"ÂĨĜ<~":6870,"ÂĨÂ±ÂıĞ":6871,"ÂĨÂ°ęÂ¤":6872,"ÂĨÂľÂİ":6873,"ÂĨÂģ<":6874,"Âĭ^":6875,"ÂĭĀ":6876,"Âĭā":6877,"ÂĭĂ":6878,"Âĭĕ":6879,"ÂĭĞ":6880,"ÂĭÂĪ":6881,"ÂĭÂ®":6882,"ÂĭÂ¶":6883,"ÂĭÃ·":6884,"ÂĭÂ¨":6885,"ÂĭÂ©":6886,"ÂĭÂŀ":6887,"ÂĭÂĹ":6888,"ÂĭÂŁ":6889,"ÂĭÂīÂŁ":6890,"Âĭ,Ă":6891,"Âĭ>ÂĶ":6892,"ÂĭėĘ":6893,"Âĭ'ěÂĶ":6894,"Âĭ<Â©":6895,"Âĭ=%":6896,"ÂĭĘ%":6897,"ÂĭġÂ°":6898,"Â£%":6899,"Â£'":6900,"Â£+":6901,"Â£<":6902,"Â£{":6903,"Â£~":6904,"Â£Ā":6905,"Â£ć":6906,"Â£Ď":6907,"Â£Ĝ":6908,"Â£ğ":6909,"Â£Â»":6910,"Â£ÂĢ":6911,"Â£Â©":6912,"Â£Âĳ":6913,"Â£Â´":6914,"Â£ÂĬ":6915,"Â£$Â¯":6916,"Â£&Âī":6917,"Â£Ğ;":6918,"Â£ÂĮĒ":6919,"Â£.Âģ":6920,"Â£@^":6921,"Â£ĆÂģ+":6922,"Â£ė^":6923,"Â£ÂľĈ":6924,"Â¸)":6925,"Â¸_":6926,"Â¸}":6927,"Â¸Ď":6928,"Â¸ď":6929,"Â¸Đ":6930,"Â¸Â¿":6931,"Â¸Âĸ":6932,"Â¸Âľ":6933,"Â¸ÂĻ":6934,"Â¸Âı":6935,"Â¸Âĥ":6936,"Â¸ÃĹ":6937,"Â¸Â´":6938,"Â¸ÂŁ":6939,"Â¸Âļ":6940,"Â¸Âĺ":6941,"Â¸Âķ":6942,"Â¸ĔĈ":6943,"Â¸Â¨ė":6944,"Â¸ÂĶ^":6945,"Â¸!Âĩğ":6946,"Â¸~Âļ":6947,"Â¸đÂ¸":6948,"Â¸Â°ÂĦ":6949,"Â¼2":6950,"Â¼4":6951,"Â¼5":6952,"Â¼9":6953,"Â¼Â³":6954,"Â¼Â¹":6955,"ÂĻ*":6956,"ÂĻ-":6957,"ÂĻē":6958,"ÂĻė":6959,"ÂĻĘ":6960,"ÂĻÂĪ":6961,"ÂĻÂģ":6962,"ÂĻÂ®":6963,"ÂĻÂĭ":6964,"ÂĻÂĻ":6965,"ÂĻÂ¦":6966,"ÂĻÂ¬":6967,"ÂĻÂĦ":6968,"ÂĻÂĿ":6969,"ÂĻÂĮ":6970,"ÂĻ/Âĭ":6971,"ÂĻ\\ğ":6972,"ÂĻ`Â£":6973,"ÂĻĒÂı":6974,"ÂĻÂ¡Â¤":6975,"ÂĻÂ±Đ":6976,"ÂĻÂĸÂ¡":6977,"ÂĻÂĽÂŀ":6978,"ÂĻÂ¸Â¿":6979,"Ã½L":6980,"Ã½Q":6981,"Ã½y":6982,"Ã½z":6983,"Ã½Ã´":6984,"Ã½Ã½":6985,"Ã½Ãª":6986,"Ã½Ã¼":6987,"Ã½Ã«":6988,"Ã½Ãľ":6989,"Ã½Ã¨":6990,"Ã½Ã¤":6991,"Ã½Ãļ":6992,"Ã½Ãį":6993,"Ã½ÃŁ":6994,"Ã½ÃĮÃĽ":6995,"Ã½DZ":6996,"Ã½Gy":6997,"Ã½TÂºÃĥ":6998,"Ã½sh":6999,"Ã½Ã»X":7000,"ÃĩA":7001,"ÃĩB":7002,"ÃĩF":7003,"ÃĩH":7004,"ÃĩI":7005,"ÃĩL":7006,"ÃĩT":7007,"ÃĩX":7008,"ÃĩZ":7009,"Ãĩb":7010,"Ãĩd":7011,"Ãĩh":7012,"Ãĩo":7013,"Ãĩq":7014,"Ãĩy":7015,"ÃĩÃģ":7016,"ÃĩÃ´":7017,"ÃĩÃĩ":7018,"ÃĩÃª":7019,"ÃĩÃĮ":7020,"ÃĩÃİ":7021,"ÃĩÃĻ":7022,"ÃĩÃ¹":7023,"ÃĩÃĪ":7024,"ÃĩÃ©":7025,"ÃĩÃį":7026,"ÃĩÃŁ":7027,"ÃĩPÃĮ":7028,"ÃĩwÃ¥":7029,"ÃĩÃĤEGÃµ":7030,"ÃĩÃķo":7031,"Â¦&":7032,"Â¦'":7033,"Â¦-":7034,"Â¦=":7035,"Â¦[":7036,"Â¦\\":7037,"Â¦^":7038,"Â¦|":7039,"Â¦ě":7040,"Â¦Ğ":7041,"Â¦ğ":7042,"Â¦Â©":7043,"Â¦Â§":7044,"Â¦Â·":7045,"Â¦Âī":7046,"Â¦ÃĹ":7047,"Â¦Â´":7048,"Â¦Âį":7049,"Â¦Âļ":7050,"Â¦ÂĮ":7051,"Â¦(Âĥ":7052,"Â¦ĄÂ´":7053,"Â¦ćÂ®":7054,"Â¦Â¦Â¶":7055,"ÂĲ(":7056,"ÂĲ+":7057,"ÂĲ.":7058,"ÂĲ;":7059,"ÂĲ\\":7060,"ÂĲĀ":7061,"ÂĲĒ":7062,"ÂĲę":7063,"ÂĲÂ±":7064,"ÂĲÂ°":7065,"ÂĲÂľ":7066,"ÂĲÂ£":7067,"ÂĲÂĲ":7068,"ÂĲÂı":7069,"ÂĲÂ¨":7070,"ÂĲÂĶ":7071,"ÂĲÂ¬":7072,"ÂĲÃĹ":7073,"ÂĲ@)":7074,"ÂĲÂ¶^":7075,"ÂĲ!ę":7076,"ÂĲđÂĽ":7077,"ÂĲÂ»Âī":7078,"ÂĲÂ±Âķ":7079,"ÂĲ%{Â¤":7080,"ÂĲ<Âĸ":7081,"ÂĲ>Âļ":7082,"ÂĲė~":7083,"Âĵ#":7084,"Âĵ;":7085,"Âĵ@":7086,"Âĵ^":7087,"Âĵā":7088,"Âĵă":7089,"ÂĵĘ":7090,"Âĵġ":7091,"ÂĵÂ¸":7092,"ÂĵÂĵ":7093,"ÂĵÂĳ":7094,"ÂĵÂ§":7095,"ÂĵÂī":7096,"ÂĵÂ¢":7097,"ÂĵėĂ":7098,"Âĵ.ă":7099,"Âĵ<Âŀ":7100,"Âĵ?Ã·":7101,"ÂĵĈÂľ":7102,"Âĵĕ@}":7103,"ÂĵěÂį":7104,"ÂĵÂĸē":7105,"ÃªC":7106,"ÃªD":7107,"ÃªT":7108,"ÃªY":7109,"Ãªd":7110,"Ãªm":7111,"Ãªy":7112,"Ãªz":7113,"ÃªÃĲ":7114,"ÃªÃ°":7115,"ÃªÃ´":7116,"ÃªÃĻ":7117,"ÃªÃ³":7118,"ÃªÃĢ":7119,"ÃªÃī":7120,"ÃªÃĿ":7121,"ÃªÃ¤":7122,"ÃªÃļ":7123,"ÃªÃĶ":7124,"Ãªvs":7125,"ÃªKÃĳ":7126,"ÃªTh":7127,"ÃªYÃĬ":7128,"ÃªZu":7129,"ÃªÃįÃļ":7130,"ÃªÂªÃı":7131,"ÃªEJ":7132,"ÃªGÃķ":7133,"ÃªIÃĽ":7134,"ÃªLK":7135,"ÃªOo":7136,"ÃªQÃĺ":7137,"ÃªZÃ³":7138,"ÃªfÃĮ":7139,"ÃªjÂª":7140,"ÃªuGU":7141,"ÃªÃ¯v":7142,"Ã·!":7143,"Ã·)":7144,"Ã·+":7145,"Ã·-":7146,"Ã·Ě":7147,"Ã·Â±":7148,"Ã·Â£":7149,"Ã·Âĥ":7150,"Ã·Âŀ":7151,"Ã·Âİ":7152,"Ã·ÂĬ":7153,"Ã·Âį":7154,"Ã·Âļ":7155,"Ã·ć<":7156,"Ã·!Â¦":7157,"Ã·ÂĲā":7158,"Ã·#đ":7159,"Ã·>Ę":7160,"Ã·ăĒÂ´":7161,"Ã·Ĕ?":7162,"Ã·ĖĆ":7163,"Ã·ÂĸÂĮ":7164,"Ã·ÂĲ>Âļ":7165,"Ã·Âĵ#":7166,"Ã¼E":7167,"Ã¼M":7168,"Ã¼Q":7169,"Ã¼S":7170,"Ã¼k":7171,"Ã¼n":7172,"Ã¼u":7173,"Ã¼Ãģ":7174,"Ã¼Âº":7175,"Ã¼Ãĥ":7176,"Ã¼Ã¼":7177,"Ã¼Ã¥":7178,"Ã¼Ã¾":7179,"Ã¼Ã¨":7180,"Ã¼Ã¸":7181,"Ã¼Ã±":7182,"Ã¼Ry":7183,"Ã¼wÃ½":7184,"Ã¼FÃ¯":7185,"Ã¼YÃ§":7186,"Ã¼mÃį":7187,"Ã¼nÃį":7188,"Ã¼yu":7189,"Ã¼TÂµ":7190,"Ã¼bOJ":7191,"Ã¼dDÃ»":7192,"Ã¼ÃĲÃ¾":7193,"Ã¼ÃĬÃ¬":7194,"Ã¼Ã½ÃĮÃĽ":7195,"ÃĭE":7196,"ÃĭG":7197,"Ãĭc":7198,"Ãĭj":7199,"Ãĭn":7200,"Ãĭu":7201,"Ãĭw":7202,"ÃĭÃķ":7203,"ÃĭÂº":7204,"ÃĭÃĨ":7205,"ÃĭÃı":7206,"ÃĭÃĳ":7207,"ÃĭÃ¨":7208,"ÃĭÃ¶":7209,"ÃĭÃ¢":7210,"ÃĭAÃĽ":7211,"ÃĭPR":7212,"ÃĭWÃ½":7213,"ÃĭÃİÃĲ":7214,"ÃĭÃĢÃŃ":7215,"ÃĭÃ¿ÃĶ":7216,"ÃĭXÃļÃ¨":7217,"ÃĭzÃĤ":7218,"ÃĭÃĸi":7219,"ÃĭÃ¡U":7220,"ÃĮF":7221,"ÃĮG":7222,"ÃĮV":7223,"ÃĮW":7224,"ÃĮd":7225,"ÃĮj":7226,"ÃĮm":7227,"ÃĮo":7228,"ÃĮv":7229,"ÃĮx":7230,"ÃĮy":7231,"ÃĮÃĲ":7232,"ÃĮÃ´":7233,"ÃĮÃİ":7234,"ÃĮÃľ":7235,"ÃĮÃĪ":7236,"ÃĮÃ§":7237,"ÃĮÃ©":7238,"ÃĮÃī":7239,"ÃĮÃļ":7240,"ÃĮÂª":7241,"ÃĮÃ£":7242,"ÃĮoZ":7243,"ÃĮÃĸJ":7244,"ÃĮÃ«A":7245,"ÃĮÃ¾S":7246,"ÃĮÃģTO":7247,"ÃĮÃĬRG":7248,"Âı$":7249,"Âı.":7250,"Âı<":7251,"ÂıĀ":7252,"ÂıĖ":7253,"Âıġ":7254,"ÂıÂ°":7255,"ÂıÂľ":7256,"ÂıÂ¦":7257,"ÂıÂı":7258,"ÂıÃĹ":7259,"ÂıÂĬ":7260,"ÂıÂį":7261,"ÂıÂļ":7262,"ÂıÂĦ":7263,"ÂıÂŃ":7264,"Âıā`":7265,"ÂıĔÃ·":7266,"ÂıÂ»_":7267,"ÂıÃ·Â£":7268,"Ã«I":7269,"Ã«N":7270,"Ã«a":7271,"Ã«l":7272,"Ã«t":7273,"Ã«Ãķ":7274,"Ã«Ãĸ":7275,"Ã«Ã½":7276,"Ã«Ãĭ":7277,"Ã«Ãı":7278,"Ã«Ã¨":7279,"Ã«ÃĢ":7280,"Ã«Ã¶":7281,"Ã«ÃĿ":7282,"Ã«Ã¤":7283,"Ã«Âµ":7284,"Ã«Ãµ":7285,"Ã«ÃĴ":7286,"Ã«ÃŁ":7287,"Ã«Zu":7288,"Ã«gÃł":7289,"Ã«yÃĪ":7290,"Ã«Ã¹Ã«":7291,"Ã«Ã²p":7292,"Ã«RD":7293,"Ã«Ã°V":7294,"Ã«Ã´H":7295,"ÃºC":7296,"ÃºE":7297,"ÃºI":7298,"ÃºP":7299,"ÃºV":7300,"Ãºc":7301,"Ãºh":7302,"Ãºk":7303,"Ãºn":7304,"Ãºp":7305,"Ãºr":7306,"Ãºx":7307,"ÃºÃĤ":7308,"ÃºÃĸ":7309,"ÃºÃ¥":7310,"ÃºÃ±":7311,"ÃºÃł":7312,"ÃºÃ§":7313,"ÃºÃĿ":7314,"ÃºÃį":7315,"ÃºÃ¿":7316,"ÃºÃŁ":7317,"ÃºPÃĿ":7318,"ÃºgÃµ":7319,"ÃºÃİq":7320,"ÃºJÃĺ":7321,"ÃºKT":7322,"ÃºfÃ¦":7323,"ÃºÃ¡MÃĴ":7324,"ÃºÃªC":7325,"Â¨>":7326,"Â¨^":7327,"Â¨}":7328,"Â¨ą":7329,"Â¨Ć":7330,"Â¨đ":7331,"Â¨ę":7332,"Â¨ĝ":7333,"Â¨ÂĪ":7334,"Â¨ÂĨ":7335,"Â¨ÂĻ":7336,"Â¨Âĳ":7337,"Â¨Âŀ":7338,"Â¨Â·":7339,"Â¨Â¬":7340,"Â¨ÂŁ":7341,"Â¨ÂĬ":7342,"Â¨Â¯":7343,"Â¨Ą)":7344,"Â¨Â§Âĩ":7345,"Â¨.ÂŃ":7346,"Â¨{Ě":7347,"Â¨ĀÂ°":7348,"Â¨ÂĸÂĭ":7349,"Â¨ÂľÂ´":7350,"Â©*":7351,"Â©]":7352,"Â©`":7353,"Â©Ĉ":7354,"Â©Ĕ":7355,"Â©Âĸ":7356,"Â©ÂĴ":7357,"Â©Â®":7358,"Â©Âŀ":7359,"Â©Â§":7360,"Â©Â¢":7361,"Â©;Ĉ":7362,"Â©Âĥ>":7363,"Â©ÂĩĂ":7364,"Â©ĈÂ¤":7365,"Â©)Ĕ":7366,"Â©/ė":7367,"Â©;ÂĦ":7368,"Â©<ġ":7369,"Â©>_Ė":7370,"Â©ĒÂ®ÂĨ":7371,"Â©ęĎ":7372,"Â©ĚďÂĥ":7373,"Â©ÂĢ:Ě":7374,"Â©ÂĻÂ¦":7375,"Âĥ&":7376,"Âĥ'":7377,"Âĥ-":7378,"Âĥ[":7379,"Âĥ\\":7380,"Âĥ}":7381,"ÂĥĀ":7382,"ÂĥĘ":7383,"ÂĥÂľ":7384,"ÂĥÂĲ":7385,"ÂĥÂ¢":7386,"ÂĥÂ¬":7387,"ÂĥÃĹ":7388,"ÂĥÂ¥":7389,"ÂĥÂĿ":7390,"ÂĥÂŃ":7391,"ÂĥęÂ¸":7392,"Âĥ${Âĸ":7393,"Âĥ/ÂĪ":7394,"Âĥ?,":7395,"Âĥ{ÂĶ":7396,"ÂĥĄ\\ą":7397,"ÂĥđÂŀ":7398,"ÂĥėÂİ":7399,"ÂĥÂ¡Âĭ":7400,"ÂĥÂ¶Â¡":7401,"Âĳ\"":7402,"Âĳ/":7403,"ÂĳĀ":7404,"ÂĳĔ":7405,"ÂĳĚ":7406,"Âĳğ":7407,"Âĳġ":7408,"ÂĳÂ»":7409,"ÂĳÂĢ":7410,"ÂĳÂĨ":7411,"ÂĳÂ¦":7412,"ÂĳÂ§":7413,"ÂĳÂİ":7414,"ÂĳÃĹ":7415,"ÂĳÂ¥":7416,"ÂĳÂĺ":7417,"ÂĳÂĿ":7418,"Âĳ-ÂĻ":7419,"Âĳ=.":7420,"Âĳ[]":7421,"ÂĳăĜ":7422,"ÂĳĈÂĪě":7423,"ÂĳėÂĻ":7424,"ÂĳÂ£ÂĮĒ":7425,"ÂĶ\\":7426,"ÂĶ}":7427,"ÂĶā":7428,"ÂĶĎ":7429,"ÂĶĒ":7430,"ÂĶğ":7431,"ÂĶÂģ":7432,"ÂĶÂĨ":7433,"ÂĶÂ¸":7434,"ÂĶÂı":7435,"ÂĶÂ¨":7436,"ÂĶÂŁ":7437,"ÂĶÂĺ":7438,"ÂĶÂ©ď":7439,"ÂĶē%":7440,"ÂĶ%`@":7441,"ÂĶ(]":7442,"ÂĶ/~":7443,"ÂĶ;Â°":7444,"ÂĶ<Â¸":7445,"ÂĶ@Ă":7446,"ÂĶÂ±Ē":7447,"ÂĶÂ¦Â§":7448,"ÂĶÂ©Âĸ":7449,"Âŀ+":7450,"Âŀ,":7451,"Âŀ:":7452,"Âŀă":7453,"ÂŀĔ":7454,"Âŀė":7455,"Âŀġ":7456,"ÂŀÂĽ":7457,"ÂŀÂĭ":7458,"ÂŀÂ¨":7459,"ÂŀÂĳ":7460,"ÂŀÂĶ":7461,"ÂŀÂ¬":7462,"ÂŀÂ«":7463,"ÂŀÂĿ":7464,"ÂŀÂķ":7465,"ÂŀÃĹ!":7466,"Âŀā`":7467,"ÂŀĎĂ":7468,"ÂŀĔē":7469,"ÂŀÂ¤>":7470,"Âŀ%Đ":7471,"Âŀ)Ā":7472,"Âŀ}<":7473,"ÂŀÂĻ*":7474,"Ã¥A":7475,"Ã¥D":7476,"Ã¥M":7477,"Ã¥N":7478,"Ã¥P":7479,"Ã¥W":7480,"Ã¥e":7481,"Ã¥j":7482,"Ã¥k":7483,"Ã¥y":7484,"Ã¥Ã¬":7485,"Ã¥Ã°":7486,"Ã¥Ãĵ":7487,"Ã¥Ã®":7488,"Ã¥Ã¥":7489,"Ã¥Ãŀ":7490,"Ã¥Ã¦":7491,"Ã¥Ã¹":7492,"Ã¥Ã±":7493,"Ã¥Ãµ":7494,"Ã¥Ã²R":7495,"Ã¥yÃł":7496,"Ã¥Ã°t":7497,"Ã¥EÃ½":7498,"Ã¥Zi":7499,"Ã¥dP":7500,"Ã¥rcF":7501,"Ã¥sÃ¾":7502,"Ã¥ÃĤÃ°":7503,"Ã¥Ã»pÃ¶":7504,"Ã¥Ã´ÃĶ":7505,"ÃİD":7506,"ÃİQ":7507,"ÃİU":7508,"Ãİb":7509,"ÃİÃĸ":7510,"ÃİÃħ":7511,"ÃİÃĺ":7512,"ÃİÃĢ":7513,"ÃİÃ¹":7514,"ÃİÃł":7515,"ÃİÃĿ":7516,"ÃİÃıÃ²":7517,"ÃİÃĽÃ¡":7518,"ÃİcyÂº":7519,"ÃİhÃ§":7520,"ÃİiÃ´":7521,"ÃİrÃı":7522,"ÃİÃªm":7523,"ÃİÃĭÃ¡U":7524,"ÃľO":7525,"ÃľY":7526,"Ãľd":7527,"Ãľk":7528,"ÃľÃĦ":7529,"ÃľÃ®":7530,"ÃľÃħ":7531,"ÃľÃ½":7532,"ÃľÃĩ":7533,"ÃľÃª":7534,"ÃľÃľ":7535,"ÃľÃŃ":7536,"ÃľÃĳ":7537,"ÃľÃī":7538,"ÃľHC":7539,"ÃľÃĨÃ¨":7540,"ÃľLÃ¬":7541,"ÃľMÃļ":7542,"ÃľDÃľ":7543,"Ãľnnd":7544,"ÃľoÃİ":7545,"ÃľÃĸÃħ":7546,"ÃŃE":7547,"ÃŃJ":7548,"ÃŃP":7549,"ÃŃR":7550,"ÃŃS":7551,"ÃŃh":7552,"ÃŃu":7553,"ÃŃw":7554,"ÃŃÃģ":7555,"ÃŃÃ»":7556,"ÃŃÃĥ":7557,"ÃŃÃ½":7558,"ÃŃÃŃ":7559,"ÃŃÃ¾":7560,"ÃŃÃĻ":7561,"ÃŃÃŀ":7562,"ÃŃÃı":7563,"ÃŃÃ³":7564,"ÃŃÃ¶":7565,"ÃŃÃĪ":7566,"ÃŃÃł":7567,"ÃŃÃī":7568,"ÃŃÃĴ":7569,"ÃŃÃ¯Ã®":7570,"ÃŃKÃ¤":7571,"ÃŃZS":7572,"ÃŃsÃĬ":7573,"ÃŃÃ¯r":7574,"ÃŃÃ¼Ã¼":7575,"Â§+":7576,"Â§.":7577,"Â§>":7578,"Â§\\":7579,"Â§]":7580,"Â§Ā":7581,"Â§Ă":7582,"Â§Đ":7583,"Â§ē":7584,"Â§ĕ":7585,"Â§ğ":7586,"Â§ÂĪ":7587,"Â§ÂĴ":7588,"Â§Âľ":7589,"Â§Âģ":7590,"Â§ÂĽ":7591,"Â§Â£":7592,"Â§Ã·":7593,"Â§Âı":7594,"Â§Â§":7595,"Â§Â·":7596,"Â§Âİ":7597,"Â§Â¤":7598,"Â§ÂĬ":7599,"Â§Â¥":7600,"Â§ÂĦ":7601,"Â§Ğĕ":7602,"Â§Â¿Ď":7603,"Â§ĄÂĽ":7604,"Â§-ÂŁ":7605,"Â§/ć":7606,"Â§ěď":7607,"Â§ÂĶ\\":7608,"Â·(":7609,"Â·@":7610,"Â·|":7611,"Â·ā":7612,"Â·ć":7613,"Â·ĕ":7614,"Â·ė":7615,"Â·ğ":7616,"Â·Âľ":7617,"Â·Âŀ":7618,"Â·Â¤":7619,"Â·ÂĿ":7620,"Â·ÂŃ":7621,"Â·|ÂĨ":7622,"Â·ĀÂĻ":7623,"Â·-Ć&":7624,"Â·~Ĉ":7625,"Â·ĖÂĶ":7626,"Â·Â£ÂĬ":7627,"Â·Â¸Âľ":7628,"Â·Â¨ÂĨ":7629,"Â·Â©ÂĻÂ¦":7630,"Â·Â§ÂĬ":7631,"Â¾0":7632,"Â¾2":7633,"Â¾4":7634,"Â¾Â²":7635,"Â¾Â¼":7636,"Âİ#":7637,"Âİ[":7638,"Âİ^":7639,"ÂİĀ":7640,"ÂİĐ":7641,"ÂİĜ":7642,"Âİğ":7643,"ÂİÂ¡":7644,"ÂİÂ»":7645,"ÂİÂģ":7646,"ÂİÂ¦":7647,"ÂİÂĲ":7648,"ÂİÂŀ":7649,"ÂİÂ¢":7650,"ÂİÂ¤":7651,"ÂİÂ¯":7652,"ÂİÂĦ":7653,"ÂİĖ\\":7654,"ÂİÂĢĎ":7655,"ÂİÂķĔ":7656,"Âİ{Ē":7657,"ÂİĀÂ¤":7658,"ÂİÂ´ÂĴ":7659,"Âİ=Â·":7660,"Âİ`[":7661,"Âİ|Ā":7662,"ÂİđÂĺ":7663,"ÂİÃ·ăĒÂ´":7664,"ÂİÂıÂ°":7665,"Ã¾J":7666,"Ã¾Z":7667,"Ã¾f":7668,"Ã¾m":7669,"Ã¾Ãķ":7670,"Ã¾Ã¼":7671,"Ã¾Ã¾":7672,"Ã¾ÃĻ":7673,"Ã¾Ãŀ":7674,"Ã¾Ãļ":7675,"Ã¾Âª":7676,"Ã¾Ã¿":7677,"Ã¾Ã£":7678,"Ã¾yÃł":7679,"Ã¾BÃ«":7680,"Ã¾CÃ¨":7681,"Ã¾IÃµ":7682,"Ã¾Ã´Zr":7683,"Ã¾ÃĮx":7684,"ÃĻF":7685,"ÃĻI":7686,"ÃĻJ":7687,"ÃĻO":7688,"ÃĻS":7689,"ÃĻT":7690,"ÃĻÃĤ":7691,"ÃĻÃĦ":7692,"ÃĻÃĨ":7693,"ÃĻÃĵ":7694,"ÃĻÃħ":7695,"ÃĻÃĮ":7696,"ÃĻÃ¨":7697,"ÃĻÃ³":7698,"ÃĻÃ¶":7699,"ÃĻÃ±":7700,"ÃĻÃ§":7701,"ÃĻÃļ":7702,"ÃĻÃ¿":7703,"ÃĻÃ£ÃĶ":7704,"ÃĻÃĳÃ¶":7705,"ÃĻOB":7706,"ÃĻTZ":7707,"ÃĻhÃĽ":7708,"ÃĻÃ½ÃĢ":7709,"ÃĻÃıÃ²":7710,"ÃĻÃĿv":7711,"ÃĻXKU":7712,"ÃĻaÃĦ":7713,"ÃĻÃĺWÃģ":7714,"ÃĻÃĭÃĸi":7715,"ÃĻÃ«Zu":7716,"ÃĻÃľHC":7717,"ÃŀA":7718,"ÃŀE":7719,"ÃŀN":7720,"ÃŀO":7721,"ÃŀP":7722,"ÃŀR":7723,"Ãŀh":7724,"Ãŀj":7725,"Ãŀp":7726,"ÃŀÃķ":7727,"ÃŀÂº":7728,"ÃŀÃĨ":7729,"ÃŀÃ°":7730,"ÃŀÃĵ":7731,"ÃŀÃ®":7732,"ÃŀÃĺ":7733,"ÃŀÃĥ":7734,"ÃŀÃ½":7735,"ÃŀÃı":7736,"ÃŀÃ©":7737,"ÃŀÂª":7738,"ÃŀÃ¢":7739,"ÃŀÃŁ":7740,"ÃŀAI":7741,"ÃŀCÃ©":7742,"ÃŀFÃł":7743,"ÃŀHÃ±":7744,"ÃŀPÃĭ":7745,"Ãŀby":7746,"ÃŀhX":7747,"ÃŀÃĸÃŁ":7748,"ÃŀÃ¼Ã¾":7749,"Âī\"":7750,"Âī#":7751,"Âī)":7752,"Âī,":7753,"Âī>":7754,"Âī^":7755,"ÂīĀ":7756,"Âīğ":7757,"ÂīÂľ":7758,"ÂīÂ®":7759,"ÂīÂĭ":7760,"ÂīÂĶ":7761,"ÂīÂ§":7762,"ÂīÂ·":7763,"ÂīÂī":7764,"ÂīÂķ":7765,"ÂīĎÂĤ":7766,"ÂīÂĢÂ¤":7767,"Âī&Â£ÂĽ":7768,"Âī]ÂĨĔ":7769,"Âī`ĂĈ":7770,"ÂīĈė":7771,"ÂīĚĂ":7772,"ÂīÂ©*":7773,"ÃıA":7774,"ÃıG":7775,"Ãıa":7776,"Ãıl":7777,"Ãım":7778,"Ãıt":7779,"ÃıÃķ":7780,"ÃıÃĸ":7781,"ÃıÃ®":7782,"ÃıÃ¯":7783,"ÃıÃľ":7784,"ÃıÃĻ":7785,"ÃıÃĪ":7786,"ÃıÃł":7787,"ÃıÃ¤":7788,"ÃıÃĽ":7789,"ÃıÃ¢":7790,"ÃıeÃķ":7791,"ÃıAÃĲ":7792,"ÃıFÃľ":7793,"ÃıÃĶÂº":7794,"Ãıdl":7795,"ÃıjÃįr":7796,"ÃıyÃ¤":7797,"ÃıÃĺÃĻ":7798,"ÃıÃ«l":7799,"ÃĳS":7800,"ÃĳZ":7801,"Ãĳk":7802,"ÃĳÃģ":7803,"ÃĳÃ®":7804,"ÃĳÃĻ":7805,"ÃĳÃĪ":7806,"ÃĳÃł":7807,"ÃĳÃī":7808,"ÃĳÃ¤":7809,"ÃĳÃļ":7810,"ÃĳÃ£":7811,"ÃĳÃ¡Âµ":7812,"ÃĳÃ´Ã¦":7813,"ÃĳcÃ¥":7814,"ÃĳÃĨT":7815,"ÃĳVÃ¤Ã½":7816,"ÃĳeÃĲ":7817,"ÃĳlZs":7818,"ÃĳÃĵR":7819,"Ã¨A":7820,"Ã¨N":7821,"Ã¨T":7822,"Ã¨Z":7823,"Ã¨a":7824,"Ã¨e":7825,"Ã¨u":7826,"Ã¨x":7827,"Ã¨Ã»":7828,"Ã¨Ã¬":7829,"Ã¨ÃĨ":7830,"Ã¨Ã°":7831,"Ã¨Ãĵ":7832,"Ã¨Ã¼":7833,"Ã¨Ã³":7834,"Ã¨ÃĢ":7835,"Ã¨Ã¶":7836,"Ã¨Ã¹":7837,"Ã¨Ã§":7838,"Ã¨Âµ":7839,"Ã¨nV":7840,"Ã¨qr":7841,"Ã¨ÃªJ":7842,"Ã¨XÃĤ":7843,"Ã¨dM":7844,"Ã¨ju":7845,"Ã¨lG":7846,"Ã³A":7847,"Ã³B":7848,"Ã³X":7849,"Ã³i":7850,"Ã³j":7851,"Ã³v":7852,"Ã³Ã¡":7853,"Ã³ÃĦ":7854,"Ã³ÃĨ":7855,"Ã³Ã¼":7856,"Ã³Ãľ":7857,"Ã³ÃŃ":7858,"Ã³Ãŀ":7859,"Ã³Ã¹":7860,"Ã³Ã©":7861,"Ã³Ã¤":7862,"Ã³Âµ":7863,"Ã³Iy":7864,"Ã³TÃĶ":7865,"Ã³ZÃģ":7866,"Ã³eÃ²":7867,"Ã³LQ":7868,"Ã³Qm":7869,"Ã³hÃİ":7870,"Ã³tÃĩ":7871,"Ã³uÃķm":7872,"Ã³ÃĤÃķ":7873,"Ã³ÃģÃĶÂº":7874,"Ã³Ã¬Ã´":7875,"Ã³ÃĺÃª":7876,"Ã³ÃĭÂº":7877,"Ã¸K":7878,"Ã¸W":7879,"Ã¸m":7880,"Ã¸o":7881,"Ã¸u":7882,"Ã¸w":7883,"Ã¸x":7884,"Ã¸Ãģ":7885,"Ã¸Ã»":7886,"Ã¸Ã¡":7887,"Ã¸ÃĲ":7888,"Ã¸Ã°":7889,"Ã¸Ã¯":7890,"Ã¸ÃĬ":7891,"Ã¸Ãª":7892,"Ã¸ÃĮ":7893,"Ã¸Ãº":7894,"Ã¸Ã¥":7895,"Ã¸Ã¾":7896,"Ã¸Ãŀ":7897,"Ã¸Ã¤":7898,"Ã¸Âµ":7899,"Ã¸ÃĴ":7900,"Ã¸aF":7901,"Ã¸nÃ»":7902,"Ã¸nÃ±":7903,"Ã¸bp":7904,"Ã¸ÃĤÃį":7905,"Ã¸ÃķÃ¢":7906,"Ã¸ÃħÃ¥":7907,"ÃĢN":7908,"ÃĢQ":7909,"ÃĢU":7910,"ÃĢe":7911,"ÃĢn":7912,"ÃĢo":7913,"ÃĢÃĲ":7914,"ÃĢÃĮ":7915,"ÃĢÃľ":7916,"ÃĢÃĳ":7917,"ÃĢÃ¸":7918,"ÃĢÃĪ":7919,"ÃĢÃ©":7920,"ÃĢÃĿ":7921,"ÃĢÃ¿":7922,"ÃĢKÃ¨":7923,"ÃĢLÃ¬":7924,"ÃĢÃ¯Ãª":7925,"ÃĢÃĭÃĩ":7926,"ÃĢRÃĪ":7927,"ÃĢcnÃģ":7928,"ÃĢgwÃĸ":7929,"ÃĢÂºÃł":7930,"ÃĢÃ®Ã±":7931,"ÃĢÃİÃĿ":7932,"ÃĢÃ¾Z":7933,"ÃĢÃĻÃ±":7934,"Â¢#":7935,"Â¢%":7936,"Â¢=":7937,"Â¢\\":7938,"Â¢^":7939,"Â¢ă":7940,"Â¢ď":7941,"Â¢Đ":7942,"Â¢Ĕ":7943,"Â¢ĕ":7944,"Â¢ė":7945,"Â¢Â±":7946,"Â¢ÂĢ":7947,"Â¢ÂĪ":7948,"Â¢Â¶":7949,"Â¢ÂĨ":7950,"Â¢Âĥ":7951,"Â¢Âŀ":7952,"Â¢Âī":7953,"Â¢ÂĤ":7954,"Â¢Âĩ":7955,"Â¢Â¥":7956,"Â¢*Ė":7957,"Â¢;Ě":7958,"Â¢ćÂĲ":7959,"Â¢ĝÂ·":7960,"Â¢Âĭć":7961,"Â¢ÂĲĚ":7962,"Â¢ÂĬ|":7963,"Â¢$Ę":7964,"Â¢@-":7965,"Â¢]Âĭ":7966,"Â¢ÂľÂ¿Âļ":7967,"Â¬\"":7968,"Â¬*":7969,"Â¬?":7970,"Â¬^":7971,"Â¬_":7972,"Â¬|":7973,"Â¬Ā":7974,"Â¬ā":7975,"Â¬ě":7976,"Â¬ġ":7977,"Â¬ÂĲ":7978,"Â¬Âĥ":7979,"Â¬ÃĹ":7980,"Â¬Â¥":7981,"Â¬Âĺ":7982,"Â¬ĀÂ´":7983,"Â¬Đě":7984,"Â¬Ę)":7985,"Â¬ĂÂ±Â£":7986,"Â¬ėÂ¢Âĺ":7987,"Â¬ĜÂ«Â®":7988,"Â¬ÂĴĘ":7989,"Â¬Ã·Âİ":7990,"Â¬ÂĶ%`@":7991,"Â¬ÂİÂ¯":7992,"Ã¦B":7993,"Ã¦M":7994,"Ã¦P":7995,"Ã¦R":7996,"Ã¦i":7997,"Ã¦k":7998,"Ã¦v":7999,"Ã¦Ã®":8000,"Ã¦Ã¼":8001,"Ã¦ÃŃ":8002,"Ã¦Ãĳ":8003,"Ã¦Ã±":8004,"Ã¦ÃĶ":8005,"Ã¦ÃĴ":8006,"Ã¦ÃĤA":8007,"Ã¦ÃĤÃī":8008,"Ã¦ÃŀÃľ":8009,"Ã¦OB":8010,"Ã¦UÃĲ":8011,"Ã¦YS":8012,"Ã¦ÃģÃ£":8013,"Ã¦ÂºÃ¯":8014,"Ã¦ÃĽo":8015,"Ã¦AÃ®":8016,"Ã¦JI":8017,"Ã¦VÃ±":8018,"Ã¦fÃ¹":8019,"Ã¦mPÃĢ":8020,"Ã¦ÃģNÃĲ":8021,"Ã¦Ã¯y":8022,"Ã¦ÃºV":8023,"Ã¦ÃıÃĪ":8024,"Ã¶H":8025,"Ã¶J":8026,"Ã¶N":8027,"Ã¶S":8028,"Ã¶T":8029,"Ã¶b":8030,"Ã¶d":8031,"Ã¶p":8032,"Ã¶Ãº":8033,"Ã¶ÃŃ":8034,"Ã¶Ãŀ":8035,"Ã¶Ã¸":8036,"Ã¶ÃĢ":8037,"Ã¶Ãļ":8038,"Ã¶ÃĶ":8039,"Ã¶ÃĽ":8040,"Ã¶Ã®Ãº":8041,"Ã¶Ap":8042,"Ã¶Re":8043,"Ã¶ÃĲÃ¦":8044,"Ã¶iÃ¼":8045,"Ã¶Ã»Ã£":8046,"Ã¶Ã°wÃµ":8047,"Ã¶Ã¶p":8048,"Ã¹V":8049,"Ã¹d":8050,"Ã¹p":8051,"Ã¹r":8052,"Ã¹Ãħ":8053,"Ã¹Ã´":8054,"Ã¹Ãĥ":8055,"Ã¹Ãĩ":8056,"Ã¹Ã¥":8057,"Ã¹ÃŃ":8058,"Ã¹Ã¾":8059,"Ã¹Ã¶":8060,"Ã¹Ã¹":8061,"Ã¹Ã§":8062,"Ã¹Âª":8063,"Ã¹eÃĵ":8064,"Ã¹iÃ¹":8065,"Ã¹ÃľÃº":8066,"Ã¹Ã©i":8067,"Ã¹QÃ¬":8068,"Ã¹gP":8069,"Ã¹iO":8070,"Ã¹oy":8071,"Ã¹trH":8072,"Ã¹Ãķp":8073,"Ã¹ÃĺmÃ³":8074,"Ã¹Ãľd":8075,"Ã¹Ãım":8076,"Ã¹Ã¨Ã¼":8077,"ÃĹ.":8078,"ÃĹ<":8079,"ÃĹ_":8080,"ÃĹĂ":8081,"ÃĹė":8082,"ÃĹÂ»":8083,"ÃĹÂĴ":8084,"ÃĹÂĽ":8085,"ÃĹÂĻ":8086,"ÃĹÂĲ":8087,"ÃĹÂĥ":8088,"ÃĹÂĳ":8089,"ÃĹÂ¢":8090,"ÃĹÂĹ":8091,"ÃĹÂ´":8092,"ÃĹÂķ":8093,"ÃĹÂĵĄ":8094,"ÃĹÂĤÂľ":8095,"ÃĹ'^":8096,"ÃĹ/ÂĨ":8097,"ÃĹ/ÂĶ":8098,"ÃĹĀÃ·":8099,"ÃĹÂ®ÂĤ":8100,"ÃĹÂ¦ÂĤ":8101,"ÃĹÂ¥$":8102,"ÃĹ;ÂĦ\\":8103,"Ã±F":8104,"Ã±n":8105,"Ã±r":8106,"Ã±Ã»":8107,"Ã±ÃĦ":8108,"Ã±Ãĩ":8109,"Ã±Ãŀ":8110,"Ã±Ã±":8111,"Ã±Ãī":8112,"Ã±Ã¤":8113,"Ã±ÃĽ":8114,"Ã±Ã¢":8115,"Ã±Ã¾Ã¶":8116,"Ã±Ã³Ã²":8117,"Ã±Ã±g":8118,"Ã±YmÃĬ":8119,"Ã±kÃĦ":8120,"Ã±lWÃļ":8121,"Ã±zV":8122,"Ã±ÃģÃĮ":8123,"Ã±Ã¯Ã»":8124,"Ã±Ã¥Ã»pÃ¶":8125,"Ã±Ã¨ÃªJ":8126,"Ã±Ã³TÃĶ":8127,"ÃĪF":8128,"ÃĪN":8129,"ÃĪa":8130,"ÃĪf":8131,"ÃĪk":8132,"ÃĪÃĺ":8133,"ÃĪÃ¼":8134,"ÃĪÃ«":8135,"ÃĪÃ¥":8136,"ÃĪÃŃ":8137,"ÃĪÃ¸":8138,"ÃĪÃĢ":8139,"ÃĪÃ¦":8140,"ÃĪÃļ":8141,"ÃĪÂµ":8142,"ÃĪÂª":8143,"ÃĪÃĽ":8144,"ÃĪÃ¢":8145,"ÃĪfe":8146,"ÃĪNs":8147,"ÃĪVCn":8148,"ÃĪYÃĭ":8149,"ÃĪZÃı":8150,"ÃĪmNO":8151,"ÃĪuv":8152,"ÃĪÃ»Ã¶":8153,"ÃĪÃ¡v":8154,"ÃĪÃ®c":8155,"ÃĪÃŀÃ¼Ã¾":8156,"ÃĪÃıÃĺÃĻ":8157,"ÃĪÃ¶N":8158,"ÃłF":8159,"ÃłJ":8160,"ÃłZ":8161,"Ãłt":8162,"Ãłv":8163,"ÃłÃĬ":8164,"ÃłÃĭ":8165,"ÃłÃł":8166,"ÃłÃ¤":8167,"ÃłÃļ":8168,"ÃłÃĿÃĮ":8169,"ÃłTG":8170,"ÃłgAÃľ":8171,"ÃłlY":8172,"ÃłÃ»S":8173,"ÃłÂºzÃ¯":8174,"ÃłÃĲQ":8175,"ÃłÃİÃĺ":8176,"ÃłÃıA":8177,"ÂĤ&":8178,"ÂĤ'":8179,"ÂĤ.":8180,"ÂĤĀ":8181,"ÂĤĂ":8182,"ÂĤÂ¿":8183,"ÂĤÂĨ":8184,"ÂĤÂ¸":8185,"ÂĤÂ¢":8186,"ÂĤÂĤ":8187,"ÂĤÂļ":8188,"ÂĤÂĺ":8189,"ÂĤĎÂĶ":8190,"ÂĤă%":8191,"ÂĤĘĐÂ¸":8192,"ÂĤÂ»:":8193,"ÂĤÂ·-Ć&":8194,"Âĩ\"":8195,"Âĩ#":8196,"Âĩ$":8197,"Âĩ)":8198,"Âĩ,":8199,"Âĩ:":8200,"ÂĩĚ":8201,"ÂĩĜ":8202,"ÂĩÂĴ":8203,"ÂĩÂľ":8204,"ÂĩÂĨ":8205,"ÂĩÂ¢":8206,"ÂĩÂļ":8207,"Âĩ]đ":8208,"Âĩ}ă":8209,"ÂĩćÂĲ":8210,"ÂĩÂĸÂĪ":8211,"ÂĩÂĭ(":8212,"Âĩ!ÂĲ":8213,"Âĩ'Âī":8214,"Âĩ>ÂĽ":8215,"Âĩđġ":8216,"ÂĩÂ¨Âŀ":8217,"ÂĩÂĥĘ":8218,"ÂĹ*":8219,"ÂĹ,":8220,"ÂĹ.":8221,"ÂĹ=":8222,"ÂĹ`":8223,"ÂĹĘ":8224,"ÂĹÂĢ":8225,"ÂĹÂĽ":8226,"ÂĹÂ£":8227,"ÂĹÂĲ":8228,"ÂĹÂĶ":8229,"ÂĹÂĹ":8230,"ÂĹÂ«":8231,"ÂĹÂķ":8232,"ÂĹÂŃ":8233,"ÂĹ\")":8234,"ÂĹ=!":8235,"ÂĹ~Ğ":8236,"ÂĹÂ»?":8237,"ÂĹĐÂĴ":8238,"ÂĹđÂĳ":8239,"ÂĹě~":8240,"ÂĹÂĸ@":8241,"ÂĹÂĪÂĬ":8242,"ÂĹÂĴÂĹÂ¥":8243,"ÂĹÂ¶ÂĪ":8244,"ÂĹÂĨÂľÂİ":8245,"ÂĹÂ§Ā":8246,"Ã§B":8247,"Ã§C":8248,"Ã§D":8249,"Ã§G":8250,"Ã§T":8251,"Ã§a":8252,"Ã§i":8253,"Ã§j":8254,"Ã§o":8255,"Ã§ÃĨ":8256,"Ã§Ã¯":8257,"Ã§ÃĢ":8258,"Ã§Ãļ":8259,"Ã§Ã¢":8260,"Ã§lÃ§":8261,"Ã§Ã°b":8262,"Ã§EÃ£":8263,"Ã§HÂº":8264,"Ã§OF":8265,"Ã§gÃ´":8266,"Ã§lÃł":8267,"Ã§ns":8268,"Ã§vÃİ":8269,"Ã§ÃĵIÃĦA":8270,"Ã§Ã¥Ã²R":8271,"Ã§Ã¹Ãĩ":8272,"Ã§ÃłZ":8273,"Ã©T":8274,"Ã©V":8275,"Ã©Z":8276,"Ã©b":8277,"Ã©p":8278,"Ã©Ã°":8279,"Ã©Ãĵ":8280,"Ã©Ãħ":8281,"Ã©Ãĩ":8282,"Ã©ÃĮ":8283,"Ã©Ã¾":8284,"Ã©ÃĻ":8285,"Ã©ÃĢ":8286,"Ã©Ã¦":8287,"Ã©Ã¶":8288,"Ã©Ãī":8289,"Ã©Ã¤":8290,"Ã©Âµ":8291,"Ã©ÃĽ":8292,"Ã©ÃĴ":8293,"Ã©Ã£":8294,"Ã©ÃŁ":8295,"Ã©Ea":8296,"Ã©GI":8297,"Ã©nwi":8298,"Ã©ÂºÃĳ":8299,"Ã©ÃĺU":8300,"Ã©Ã³ÃĺÃª":8301,"Ã©Ã±ÃĽ":8302,"ÃīF":8303,"ÃīN":8304,"ÃīS":8305,"ÃīU":8306,"ÃīW":8307,"Ãīo":8308,"ÃīÃ°":8309,"ÃīÃľ":8310,"ÃīÃ¹":8311,"ÃīÃī":8312,"ÃīÃ¤":8313,"ÃīÃµ":8314,"ÃīÃ²":8315,"ÃīÃ¢":8316,"ÃīÃŁ":8317,"ÃīhÃĽ":8318,"Ãīnv":8319,"ÃīEÃŁ":8320,"ÃīQÃĬP":8321,"ÃīVÃ»":8322,"ÃītAÃ«":8323,"ÃīÃ¡Ã´":8324,"ÃīÃĲGbj":8325,"ÃīÃĢcnÃģ":8326,"ÃīÃ¦ÂºÃ¯":8327,"ÃĿF":8328,"ÃĿO":8329,"ÃĿV":8330,"ÃĿW":8331,"ÃĿb":8332,"ÃĿg":8333,"ÃĿj":8334,"ÃĿk":8335,"ÃĿÃ»":8336,"ÃĿÃ¡":8337,"ÃĿÃľ":8338,"ÃĿÃĳ":8339,"ÃĿÃ±":8340,"ÃĿÃī":8341,"ÃĿÃĿ":8342,"ÃĿÂª":8343,"ÃĿÃĽ":8344,"ÃĿqg":8345,"ÃĿZÃĥ":8346,"ÃĿÃĨÃĳ":8347,"ÃĿÃ³M":8348,"ÃĿÃĿU":8349,"ÃĿKÃº":8350,"ÃĿoÃĲ":8351,"ÃĿÃ°YÃ©":8352,"ÃĿÃĩÃģ":8353,"ÃĿÃ³ÃĨ":8354,"myme":8355,"mymy":8356,"mypole":8357,"mysoul":8358,"mynot":8359,"mycaptain":8360,"mythat":8361,"myhow":8362,"mythethe":8363,"mycovers":8364,"myofthe":8365,"mygate":8366,"myunafraid":8367,"mybloody":8368,"myIt":8369,"myaloud":8370,"myclutch":8371,"myunconquerable":8372,"myII":8373,"mychancethe":8374,"myImy":8375,"myILooms":8376,"myofcharged":8377,"mymyfind":8378,"mytearsplace":8379,"myet":8380,"myofgate":8381,"mymayfate":8382,"Ã¤L":8383,"Ã¤V":8384,"Ã¤Z":8385,"Ã¤a":8386,"Ã¤b":8387,"Ã¤m":8388,"Ã¤Ã¬":8389,"Ã¤WM":8390,"Ã¤Âªw":8391,"Ã¤ÃķÃľ":8392,"Ã¤BÃĿ":8393,"Ã¤MÃ¡":8394,"Ã¤jÃ´":8395,"Ã¤ÃĩA":8396,"Ã¤ÃİQ":8397,"ÃļC":8398,"ÃļG":8399,"ÃļN":8400,"Ãļm":8401,"Ãļo":8402,"Ãļq":8403,"Ãļr":8404,"Ãļt":8405,"Ãļy":8406,"ÃļÃĸ":8407,"ÃļÃĥ":8408,"ÃļÃ¸":8409,"ÃļÃ¹":8410,"ÃļÃ§":8411,"ÃļÃ©":8412,"ÃļÂª":8413,"ÃļÃ¢":8414,"ÃļlÃ¥":8415,"ÃļzÃ¯":8416,"ÃļcÃ¾":8417,"ÃļÃĺÃģ":8418,"ÃļgÃĢ":8419,"ÃļnÃı":8420,"ÃļÃģÃĬ":8421,"ÃļÃķÃ¶":8422,"ÃļÂºR":8423,"ÃļÃ¥N":8424,"ÃļÃĳVÃ¤Ã½":8425,"ÃįD":8426,"ÃįF":8427,"ÃįV":8428,"Ãįc":8429,"Ãįk":8430,"Ãįt":8431,"Ãįu":8432,"ÃįÃħ":8433,"ÃįÃĩ":8434,"ÃįÃ¼":8435,"ÃįÃł":8436,"ÃįÂµ":8437,"ÃįÃ²":8438,"ÃįÃĴ":8439,"ÃįIy":8440,"ÃįIÃµ":8441,"ÃįÃħc":8442,"ÃįÃıB":8443,"ÃįAÂª":8444,"ÃįEÃĻ":8445,"ÃįHÃİ":8446,"ÃĶD":8447,"ÃĶO":8448,"ÃĶP":8449,"ÃĶT":8450,"ÃĶm":8451,"ÃĶo":8452,"ÃĶw":8453,"ÃĶÃķ":8454,"ÃĶÃ´":8455,"ÃĶÃ¼":8456,"ÃĶÃ¿":8457,"ÃĶqg":8458,"ÃĶÃĲO":8459,"ÃĶÃ¸C":8460,"ÃĶÃĻÃĩ":8461,"ÃĶCÃĲ":8462,"ÃĶIÂº":8463,"ÃĶeDCÃĩ":8464,"ÃĶie":8465,"thathead":8466,"thathave":8467,"Â´;":8468,"Â´?":8469,"Â´]":8470,"Â´}":8471,"Â´~":8472,"Â´ą":8473,"Â´ÂĨ":8474,"Â´Âĭ":8475,"Â´Â£":8476,"Â´Ã·":8477,"Â´Âļ":8478,"Â´ÂĮ":8479,"Â´ġĖ":8480,"Â´ÂİÂĺ":8481,"Â´-Â§":8482,"Â´ĂĚ":8483,"Â´Â±&":8484,"Â´$^":8485,"Â´/*Â·":8486,"Â´{ĕ":8487,"Â´Âİ#":8488,"ÂµC":8489,"ÂµL":8490,"Âµi":8491,"Âµk":8492,"ÂµÂº":8493,"ÂµÃĲ":8494,"ÂµÃİ":8495,"ÂµÃı":8496,"ÂµÃ¶":8497,"ÂµÃ²":8498,"ÂµÃĽ":8499,"ÂµÃ¢":8500,"ÂµAp":8501,"ÂµGU":8502,"ÂµÃĩÃŀ":8503,"ÂµÃªJ":8504,"ÂµFÃĭ":8505,"ÂµxÃį":8506,"ÂµÃ»Ãĵ":8507,"ÂµÃĦa":8508,"ÂµÃĮj":8509,"ÂµÃ«Ãµ":8510,"ÂµÃ¥Ã®":8511,"ÂµÃ¾Ã£":8512,"ÂŁ!":8513,"ÂŁ*":8514,"ÂŁ-":8515,"ÂŁ:":8516,"ÂŁ\\":8517,"ÂŁ~":8518,"ÂŁą":8519,"ÂŁĜ":8520,"ÂŁÂ»":8521,"ÂŁÂ°":8522,"ÂŁÂģ":8523,"ÂŁÂ¸":8524,"ÂŁÂĶ":8525,"ÂŁÂ¬":8526,"ÂŁÃĹ":8527,"ÂŁÂĤ":8528,"ÂŁÂĬ":8529,"ÂŁÂĿ":8530,"ÂŁ)ÃĹ":8531,"ÂŁ@)":8532,"ÂŁÂīÂĸ":8533,"ÂŁćÂ¨":8534,"ÂŁďÂĻ":8535,"ÂŁġğ":8536,"ÂŁÂ±ĂÂļ":8537,"ÂŁÂĥ{ÂĶ":8538,"ÂŁÂ·Â¤":8539,"ÃµG":8540,"Ãµq":8541,"Ãµs":8542,"Ãµu":8543,"ÃµÃĸ":8544,"ÃµÃĨ":8545,"ÃµÃĲ":8546,"ÃµÃĮ":8547,"ÃµÃİ":8548,"ÃµÃı":8549,"ÃµÃ³":8550,"ÃµÃ¹":8551,"ÃµÃĪ":8552,"ÃµÃ§":8553,"ÃµÃļ":8554,"ÃµjÃ¡":8555,"ÃµVÃĮ":8556,"ÃµÂªÃŃ":8557,"ÃµKÃ±":8558,"ÃµMpÃł":8559,"ÃµXÃģ":8560,"ÃµÃ¬Ã¼":8561,"ÃµÃ´Ãħ":8562,"ÃµÃĿKÃº":8563,"Â¤$":8564,"Â¤.":8565,"Â¤^":8566,"Â¤_":8567,"Â¤Ć":8568,"Â¤Âĵ":8569,"Â¤Â¯":8570,"Â¤>ă":8571,"Â¤ĕĚ":8572,"Â¤ÃĹÂı":8573,"Â¤)ÂĦ~":8574,"Â¤:)":8575,"Â¤ĜÂĩ":8576,"Â¤Âľ+`":8577,"Â¤Â®Â£":8578,"Â¤Â´?":8579,"ÂªS":8580,"Âªh":8581,"Âªo":8582,"Âªs":8583,"ÂªÃ¬":8584,"ÂªÃ®":8585,"ÂªÃĭ":8586,"ÂªÃ¨":8587,"ÂªÃ±":8588,"ÂªÃ©":8589,"ÂªÃĴ":8590,"ÂªÃ£":8591,"ÂªIO":8592,"ÂªUÃĸg":8593,"ÂªcC":8594,"ÂªfÃł":8595,"ÂªÃĥb":8596,"ÂªÃĩÃ´":8597,"ÂªÃĪÃŀÃ¼Ã¾":8598,"ÂªÃ§Ã¹Ãĩ":8599,"ÂªÃļgÃĢ":8600,"Ã²N":8601,"Ã²i":8602,"Ã²l":8603,"Ã²t":8604,"Ã²w":8605,"Ã²Ãĸ":8606,"Ã²Ã¼":8607,"Ã²ÃŃ":8608,"Ã²ÃĢ":8609,"Ã²Ã¦":8610,"Ã²ÃĿ":8611,"Ã²Ãį":8612,"Ã²ÃĶ":8613,"Ã²Âµ":8614,"Ã²ÃĤI":8615,"Ã²Vq":8616,"Ã²Ã¥C":8617,"Ã²HD":8618,"Ã²PÃģ":8619,"Ã²Zo":8620,"Ã²daÃĮ":8621,"Ã²okÃ®":8622,"Ã²vÃ¨":8623,"Ã²ÃĲÃģÃ¹":8624,"Ã²Ã®gÃ¤":8625,"Ã²Ã´p":8626,"Ã²Ã½Ã¤":8627,"Ã²ÃľÃª":8628,"Ã²Ã¹ÃĺmÃ³":8629,"Ã²ÃĪÃĢ":8630,"Â«\"":8631,"Â«(":8632,"Â«,":8633,"Â«/":8634,"Â«:":8635,"Â«?":8636,"Â«{":8637,"Â«Ć":8638,"Â«Ĕ":8639,"Â«Ě":8640,"Â«ġ":8641,"Â«Â¡":8642,"Â«Â»":8643,"Â«ÂĴ":8644,"Â«Â£":8645,"Â«Â©":8646,"Â«Â¢":8647,"Â«Âį":8648,"Â«Âļ":8649,"Â«ÂĮ":8650,"Â«ė&":8651,"Â«Â¿đĄ":8652,"Â«ÂŀÂ¤>":8653,"Â«ÂĤÂ·-Ć&":8654,"ÂĬ$":8655,"ÂĬ+":8656,"ÂĬ.":8657,"ÂĬ<":8658,"ÂĬ=":8659,"ÂĬĀ":8660,"ÂĬĒ":8661,"ÂĬĞ":8662,"ÂĬÂ»":8663,"ÂĬÂ°":8664,"ÂĬÂİ":8665,"ÂĬÂī":8666,"ÂĬÂĮ":8667,"ÂĬĚĎ":8668,"ÂĬ%;":8669,"ÂĬÂĪęğ":8670,"ÂĬÂ¶ě":8671,"ÂĬÂıĀ":8672,"Âį=":8673,"Âį[":8674,"Âį`":8675,"ÂįÂĴ":8676,"ÂįÂĽ":8677,"ÂįÃ·":8678,"ÂįÂĹ":8679,"ÂįÂ¥":8680,"ÂįÂĺ":8681,"ÂįÂķ":8682,"ÂįÂĳÂ¯":8683,"Âį)_":8684,"Âį^ÂĲ":8685,"ÂįĈ(":8686,"ÂįÂıÂĹ":8687,"Âį$Â¶":8688,"Âį&(":8689,"ÂįĄÂŁ":8690,"ÂįĖÂ«":8691,"Âįě@":8692,"ÂįÂ°ĈÂ»":8693,"ÂįÂ¢;Ě":8694,"Âļ=":8695,"Âļ`":8696,"ÂļĆ":8697,"ÂļĐ":8698,"Âļě":8699,"Âļġ":8700,"ÂļÂĴ":8701,"ÂļÂ®":8702,"ÂļÂĳ":8703,"ÂļÂ´":8704,"ÂļÂļ":8705,"ÂļÂķ":8706,"Âļ^ÃĹ":8707,"ÂļĄÂĦ":8708,"ÂļĚ^":8709,"ÂļÂ±Ć":8710,"ÂļÂĽÂģ":8711,"ÂļÂ£Â¡":8712,"ÂļÂĤÂĢ":8713,"Âļ,<":8714,"ÂļēÂī":8715,"ÃĽA":8716,"ÃĽC":8717,"ÃĽY":8718,"ÃĽc":8719,"ÃĽi":8720,"ÃĽq":8721,"ÃĽw":8722,"ÃĽÃ®":8723,"ÃĽÃħ":8724,"ÃĽÃ´":8725,"ÃĽÃª":8726,"ÃĽÃ«":8727,"ÃĽÃı":8728,"ÃĽÃ¨":8729,"ÃĽÃ¸":8730,"ÃĽÃ¶":8731,"ÃĽÃ£":8732,"ÃĽÂºS":8733,"ÃĽÃĵÃı":8734,"ÃĽÃĳL":8735,"ÃĽVc":8736,"ÃĽjÃ§":8737,"ÃĽÃ°ÃĨ":8738,"ÃĽÃ¥M":8739,"ÃĽÃ¦YS":8740,"Ã¢A":8741,"Ã¢R":8742,"Ã¢Y":8743,"Ã¢j":8744,"Ã¢m":8745,"Ã¢v":8746,"Ã¢Ãĸ":8747,"Ã¢ÃĦ":8748,"Ã¢Ã®":8749,"Ã¢Ã¯":8750,"Ã¢Ãĩ":8751,"Ã¢ÃŃ":8752,"Ã¢Ã¦":8753,"Ã¢ÃĴ":8754,"Ã¢Ã¿":8755,"Ã¢pÃĸ":8756,"Ã¢AÃĲ":8757,"Ã¢UÃĲ":8758,"Ã¢wÃĮ":8759,"Ã¢DÃ°Ãĺ":8760,"Ã¢IÃ¢":8761,"Ã¢qd":8762,"Ã¢ÃķÃĦ":8763,"Ã¢ÃĵÃª":8764,"Ã¢ÃĺÃİÃ¶":8765,"Ã¢Ã½ÃŁ":8766,"Ã¢Ã¥Ã¥":8767,"ÃĴF":8768,"ÃĴM":8769,"ÃĴP":8770,"ÃĴT":8771,"ÃĴa":8772,"ÃĴf":8773,"ÃĴg":8774,"ÃĴj":8775,"ÃĴl":8776,"ÃĴr":8777,"ÃĴv":8778,"ÃĴz":8779,"ÃĴÃĨ":8780,"ÃĴÃ°":8781,"ÃĴÃĬ":8782,"ÃĴÃ½":8783,"ÃĴÃ¾":8784,"ÃĴÃĿ":8785,"ÃĴÃ£":8786,"ÃĴXÃ¸":8787,"ÃĴcÃī":8788,"ÃĴwÃģ":8789,"ÃĴÃīÃĺ":8790,"ÃĴEg":8791,"ÃĴHÃĸ":8792,"ÃĴLÃ¿":8793,"ÃĴWÃµ":8794,"ÃĴnÃ«":8795,"ÃĴoaÃĽ":8796,"ÃĴÃĵÃĮÃĽ":8797,"ÃĴÃĮÃĲ":8798,"ÃĴÃµXÃģ":8799,"Â¯#":8800,"Â¯(":8801,"Â¯:":8802,"Â¯?":8803,"Â¯@":8804,"Â¯Ğ":8805,"Â¯Â¿":8806,"Â¯Âĸ":8807,"Â¯ÂĨ":8808,"Â¯Ã·":8809,"Â¯Âĥ":8810,"Â¯Â¢":8811,"Â¯ÂĤ":8812,"Â¯ÂĬ":8813,"Â¯Âĺ":8814,"Â¯ÂŃ":8815,"Â¯Â»~":8816,"Â¯ÂĭÂ·":8817,"Â¯@Âŀ":8818,"Â¯^ÂĻ":8819,"Â¯Â»ÂĮ":8820,"Â¯Â°Â»":8821,"Â¯Â¦ÂĤ":8822,"Â¯Âŀ?":8823,"Â¯'ÂĮ":8824,"Â¯}#":8825,"Â¯Âī#":8826,"Â¯ÂĹ=":8827,"Ã¿C":8828,"Ã¿M":8829,"Ã¿S":8830,"Ã¿V":8831,"Ã¿h":8832,"Ã¿t":8833,"Ã¿Ãĸ":8834,"Ã¿Ã»":8835,"Ã¿Ã¡":8836,"Ã¿Ãĩ":8837,"Ã¿Ã«":8838,"Ã¿ÃĻ":8839,"Ã¿Ã¤":8840,"Ã¿BÃĮ":8841,"Ã¿RÂº":8842,"Ã¿XÃĦ":8843,"Ã¿ÃķÃİ":8844,"Ã¿ÃĬÃ¾":8845,"Ã¿BY":8846,"Ã¿HÃ¡Ãħ":8847,"Ã¿nl":8848,"Â¥\"":8849,"Â¥%":8850,"Â¥<":8851,"Â¥ĕ":8852,"Â¥Ě":8853,"Â¥Â±":8854,"Â¥Â¿":8855,"Â¥ÂĢ":8856,"Â¥ÂĻ":8857,"Â¥Âı":8858,"Â¥Âĳ":8859,"Â¥ÂĶ":8860,"Â¥Â¬":8861,"Â¥ÂĮ":8862,"Â¥Ė\\":8863,"Â¥ė&":8864,"Â¥[ÃĹ":8865,"Â¥%ę":8866,"Â¥>#":8867,"Â¥>ÂĢ":8868,"Â¥Â©!":8869,"Â¥Â¬$":8870,"Â¥;Ĕ":8871,"Âĺ#":8872,"Âĺ$":8873,"Âĺ;":8874,"ÂĺĂ":8875,"ÂĺĔ":8876,"ÂĺĖ":8877,"ÂĺĘ":8878,"ÂĺÂ¡":8879,"ÂĺÂ°":8880,"ÂĺÂ¶":8881,"ÂĺÂĨ":8882,"ÂĺÂĭ":8883,"ÂĺÂ£":8884,"ÂĺÂ§":8885,"ÂĺÂ¥":8886,"Âĺ]ÂĲ":8887,"ÂĺÂ¬&":8888,"Âĺ|Âľ":8889,"ÂĺÂľÂ§":8890,"ÂĺÂĥ,":8891,"Âĺ@Â¬":8892,"Âĺ`.Âļ":8893,"Âĺ}#?":8894,"Âĺā@ÂĦÂ¶":8895,"ÂĺÂĪÂŃ":8896,"Ã£A":8897,"Ã£P":8898,"Ã£Q":8899,"Ã£R":8900,"Ã£V":8901,"Ã£a":8902,"Ã£b":8903,"Ã£n":8904,"Ã£Ã»":8905,"Ã£Ã¡":8906,"Ã£ÃĦ":8907,"Ã£Ã°":8908,"Ã£Ãı":8909,"Ã£Ã¦":8910,"Ã£ÃĿ":8911,"Ã£ÃĴ":8912,"Ã£ÃĨÃ¨":8913,"Ã£ÃĮÃµ":8914,"Ã£BS":8915,"Ã£wÃ¤":8916,"Ã£ÃĥA":8917,"Ã£ÃĻJ":8918,"Ã£ÂµAp":8919,"ÃŁG":8920,"ÃŁZ":8921,"ÃŁv":8922,"ÃŁÃ»":8923,"ÃŁÂº":8924,"ÃŁÃ¯":8925,"ÃŁÃĬ":8926,"ÃŁÃ«":8927,"ÃŁÃº":8928,"ÃŁÃī":8929,"ÃŁOm":8930,"ÃŁÃ¾Ãİ":8931,"ÃŁÃĤÃļ":8932,"ÃŁÃĢS":8933,"ÃŁÃĿÃ«":8934,"ÃŁbP":8935,"ÃŁkÃķ":8936,"ÃŁnÃµ":8937,"ÃŁuQ":8938,"ÃŁÃªKÃĳ":8939,"ÃŁÃ¼TÂµ":8940,"ÃŁÂµÃ¾Ã£":8941,"Â½0":8942,"Â½1":8943,"Â½5":8944,"Â½8":8945,"Â½9":8946,"Â½Â³":8947,"Â½Â¹":8948,"Â½Â¾":8949,"ÂĦ>":8950,"ÂĦĀ":8951,"ÂĦā":8952,"ÂĦĎ":8953,"ÂĦĝ":8954,"ÂĦĞ":8955,"ÂĦÂı":8956,"ÂĦÂŀ":8957,"ÂĦÂ§":8958,"ÂĦÂĩ":8959,"ÂĦÂĬ":8960,"ÂĦÂ¥":8961,"ÂĦ;Â¿":8962,"ÂĦĔ{":8963,"ÂĦ([":8964,"ÂĦ*Âĩ":8965,"ÂĦ.Ã·[":8966,"ÂĦ|ÂĿ":8967,"ÂĦÂĸ+":8968,"ÂĦÂĵ;":8969,"ÂĿ,":8970,"ÂĿ_":8971,"ÂĿ`":8972,"ÂĿĕ":8973,"ÂĿĘ":8974,"ÂĿę":8975,"ÂĿĜ":8976,"ÂĿÂ±":8977,"ÂĿÂĸ":8978,"ÂĿÂĪ":8979,"ÂĿÂ¶":8980,"ÂĿÂ©":8981,"ÂĿÂ·":8982,"ÂĿÂĮ":8983,"ÂĿÂŃ":8984,"ÂĿ(_":8985,"ÂĿ$ÂĲ":8986,"ÂĿ'ą":8987,"ÂĿ/<Âı":8988,"ÂĿ>ą":8989,"ÂĿ^*":8990,"ÂĿć/ĕ":8991,"ÂĿÂĳĈÂĪě":8992,"ÂĿÂĤÂļ":8993,"ÂĮ>":8994,"ÂĮĐ":8995,"ÂĮÂĽ":8996,"ÂĮÂĨ":8997,"ÂĮÂı":8998,"ÂĮÂ©":8999,"ÂĮÂĶ":9000,"ÂĮÂ¬":9001,"ÂĮÂŃ":9002,"ÂĮ+Ď":9003,"ÂĮ:ÂĨ":9004,"ÂĮÂ¿;":9005,"ÂĮ{Â¶":9006,"ÂĮĆć":9007,"ÂĮė@":9008,"ÂĮÂĩ:":9009,"ÂĮÂĹÂķ":9010,"ÂĮÂ«?":9011,"year":9012,"yetand":9013,"yeÃĭR":9014,"yetaloud":9015,"Âķ}":9016,"ÂķĈ":9017,"ÂķÂĽ":9018,"ÂķÂŀ":9019,"ÂķÂ·":9020,"ÂķÂĩ":9021,"Âķ>Â¿":9022,"ÂķĒÂį":9023,"Âķěġ":9024,"ÂķÂ»ÂĨ":9025,"ÂķÂ®ē":9026,"ÂķÂ¦Âļ":9027,"ÂķÂŁ!":9028,"ÂķÂĺÂĥ,":9029,"ÂŃ(":9030,"ÂŃ;":9031,"ÂŃĀ":9032,"ÂŃĜ":9033,"ÂŃÂ¡":9034,"ÂŃÂ¢":9035,"ÂŃÂĬ@":9036,"ÂŃ/)":9037,"ÂŃÂ°ÂĽ":9038,"ÂŃēĚ":9039,"ÂŃĔĕ":9040,"ÂŃĚĈ}":9041,"ÂŃÂĨě":9042,"ÂŃÂ¥Âĳ":9043,"ÂŃÂĿÂĮ":9044,"indpole":9045,"shave":9046,"poleI":9047,"polesoul":9048,"poleam":9049,"polethat":9050,"polehow":9051,"polethethe":9052,"poleFor":9053,"poleyears":9054,"poleshall":9055,"polecried":9056,"polenight":9057,"poleto":9058,"poleBlackcaptain":9059,"polemythethe":9060,"nothead":9061,"notme":9062,"notis":9063,"notnot":9064,"notcovers":9065,"notFor":9066,"notwith":9067,"notofthe":9068,"notcharged":9069,"notBeyond":9070,"notcircumstance":9071,"notnor":9072,"notunafraid":9073,"notbe":9074,"notunbowed":9075,"notgods":9076,"notmaster":9077,"notofof":9078,"nottheshade":9079,"notmaythe":9080,"notmeof":9081,"notofchance":9082,"notofcharged":9083,"notIthis":9084,"notIchance":9085,"notmyIthe":9086,"nothowI":9087,"notmattershead":9088,"notbludgeoningscovers":9089,"notIcriedthe":9090,"notmyme":9091,"crÃĨ":9092,"amam":9093,"ambut":9094,"amchance":9095,"amofthe":9096,"ammenace":9097,"amAnd":9098,"amwrath":9099,"amhave":9100,"amcircumstance":9101,"amclutch":9102,"amIn":9103,"amHow":9104,"amFinds":9105,"amofBeyond":9106,"amForthe":9107,"amUndermy":9108,"ampolefind":9109,"amwraththethis":9110,"ammymyfind":9111,"andthethe":9112,"andpunishments":9113,"andofthe":9114,"andthank":9115,"andAnd":9116,"andwrath":9117,"andshall":9118,"andcircumstance":9119,"andIt":9120,"andfate":9121,"andyet":9122,"andaloud":9123,"andplace":9124,"andBlack":9125,"andthankthe":9126,"andhowthe":9127,"andmymatters":9128,"andthethegate":9129,"andpunishmentsnor":9130,"andpolefind":9131,"andclutchpole":9132,"andtheBeyond":9133,"andnotFor":9134,"butme":9135,"butcaptain":9136,"butchance":9137,"butmatters":9138,"butcovers":9139,"butFor":9140,"butfrom":9141,"butLooms":9142,"butgate":9143,"butwrath":9144,"buthave":9145,"butnor":9146,"butIt":9147,"butyet":9148,"buttears":9149,"butOut":9150,"butcried":9151,"butpit":9152,"butAndmy":9153,"butthetheunafraid":9154,"buthavethe":9155,"butunconquerablebloody":9156,"butfellunafraid":9157,"butHowIof":9158,"buttobut":9159,"butbutam":9160,"butofcaptainsoul":9161,"butIIn":9162,"butthathave":9163,"UnderI":9164,"Underam":9165,"Underfell":9166,"Underthat":9167,"Understrait":9168,"Underpunishments":9169,"Undergate":9170,"UnderMy":9171,"UnderOut":9172,"Underwhatever":9173,"Underthis":9174,"Undertheof":9175,"UnderII":9176,"Underamthe":9177,"Underwithof":9178,"Undertheplace":9179,"Underofbloody":9180,"UnderBlackof":9181,"Underamfind":9182,"UnderBeyondpole":9183,"UnderFindsas":9184,"Underbutam":9185,"UnderofIt":9186,"fellpole":9187,"fellyears":9188,"fellshall":9189,"fellbludgeonings":9190,"fellcircumstance":9191,"fellMy":9192,"fellaloud":9193,"fellnight":9194,"fellHow":9195,"fellthis":9196,"fellunbowed":9197,"fellgods":9198,"fellunconquerable":9199,"fellto":9200,"fellscroll":9201,"fellAndof":9202,"fellIofthe":9203,"fellmyAnd":9204,"fellUnderLooms":9205,"fellwithgate":9206,"fellIttheyet":9207,"fellwincedcircumstance":9208,"felltonot":9209,"fellisofBeyond":9210,"captainsoul":9211,"captainmenace":9212,"captainunafraid":9213,"captainfate":9214,"captainyet":9215,"captainMy":9216,"captainnight":9217,"captainhead":9218,"captainbu":9219,"captainthewrath":9220,"captainAndmy":9221,"captaincriedthe":9222,"captainHorrorof":9223,"captainmyLooms":9224,"captainstraitbloody":9225,"captainwhateverfrom":9226,"captainFindsfate":9227,"captainthathead":9228,"captainnotme":9229,"thatis":9230,"thatpole":9231,"thatfind":9232,"thatstrait":9233,"thatmatters":9234,"thatcovers":9235,"thatwith":9236,"thatthank":9237,"thatAnd":9238,"thatwrath":9239,"thatshall":9240,"thatcircumstance":9241,"thatIt":9242,"thatyet":9243,"thatnight":9244,"thatbe":9245,"thatBlack":9246,"thatIthe":9247,"thattheshade":9248,"thatofI":9249,"thatofme":9250,"thatnotthe":9251,"thatmybut":9252,"thatthatand":9253,"thatchancemy":9254,"thatcriedmy":9255,"thatwhateverwith":9256,"thatmastersoul":9257,"thatnotmaythe":9258,"howas":9259,"howbut":9260,"howmay":9261,"howtears":9262,"howclutch":9263,"howOut":9264,"howhead":9265,"howwinced":9266,"howofand":9267,"howoffrom":9268,"howpi":9269,"howofwinced":9270,"howLoomscried":9271,"howHowBlack":9272,"howoffindbloody":9273,"howfellmyAnd":9274,"howcaptainnight":9275,"coÃ¬Ã¬":9276,"findI":9277,"findas":9278,"findUnder":9279,"findcaptain":9280,"findfrom":9281,"findLooms":9282,"findAnd":9283,"findMy":9284,"findthis":9285,"findIthe":9286,"findwraththe":9287,"findtheis":9288,"findthefell":9289,"findtheFor":9290,"findnorI":9291,"findofbludgeonings":9292,"findshallsoul":9293,"findbuttears":9294,"findfellto":9295,"straitthank":9296,"straitLooms":9297,"straitmay":9298,"straitBeyond":9299,"straitwrath":9300,"straithave":9301,"straitMy":9302,"straitthis":9303,"straitunbowed":9304,"straitunconquerable":9305,"straittheI":9306,"straitthehow":9307,"straitbutof":9308,"straitclutchI":9309,"straitBlackof":9310,"straitunconquerablebloody":9311,"straitHorrorof":9312,"straitmywinced":9313,"straitthatthe":9314,"straitpunishmentssoul":9315,"straitBlackIn":9316,"straitIthealoud":9317,"straitnotwith":9318,"straitUnderII":9319,"attersmatters":9320,"chanceI":9321,"chanceis":9322,"chanceand":9323,"chancecovers":9324,"chancepunishments":9325,"chancecharged":9326,"chancemay":9327,"chanceshall":9328,"chancecircumstance":9329,"chanceyet":9330,"chanceIn":9331,"chanceunconquerable":9332,"chanceIam":9333,"chancethankhave":9334,"chanceIthis":9335,"chanceheadg":9336,"chancemeBlack":9337,"matterspole":9338,"mattersmatters":9339,"mattersthethe":9340,"matterswith":9341,"mattersofthe":9342,"mattersthank":9343,"mattersmay":9344,"mattershave":9345,"mattersbludgeonings":9346,"matterswhatever":9347,"mattersFinds":9348,"mattershowthe":9349,"matterscoversthe":9350,"mattersmyaloud":9351,"matterschanceand":9352,"thetheme":9353,"thethemy":9354,"thethebut":9355,"thethehow":9356,"thetheofthe":9357,"thetheshade":9358,"thetheIt":9359,"thethealoud":9360,"thethenight":9361,"thetheBlack":9362,"thethethis":9363,"thetheFinds":9364,"thethemaster":9365,"thethewinced":9366,"thethethankthe":9367,"thetheisgodsIt":9368,"thethefellwincedcircumstance":9369,"thethethatstrait":9370,"thethefindfrom":9371,"thethestraitwrath":9372,"coversas":9373,"coverspole":9374,"coverssoul":9375,"coversam":9376,"covershow":9377,"coversthank":9378,"coversmenace":9379,"coversyears":9380,"coversgate":9381,"coversBeyond":9382,"coverscircumstance":9383,"coversshade":9384,"coversbloody":9385,"coversplace":9386,"coversnight":9387,"covershead":9388,"coversscroll":9389,"coverstheof":9390,"coversIthe":9391,"coversII":9392,"coversofthethe":9393,"coversForfrom":9394,"coversoftheshall":9395,"covershaveof":9396,"coversIHow":9397,"coversmycaptain":9398,"coversthethemaster":9399,"punishmentsI":9400,"punishmentsthe":9401,"punishmentswith":9402,"punishmentscharged":9403,"punishmentsgate":9404,"punishmentsnigh":9405,"punishmentsaloud":9406,"punishmentsOut":9407,"punishmentsnight":9408,"punishmentsbe":9409,"punishmentsgods":9410,"punishmentsthenor":9411,"punishmentsIhow":9412,"punishmentsisto":9413,"punishmentsbludgeoningst":9414,"punishmentsisBeyondthe":9415,"punishmentsbutgate":9416,"punishmentsstraitIthealoud":9417,"Forhow":9418,"Forstrait":9419,"Forcharged":9420,"Forhave":9421,"ForHow":9422,"Forwhatever":9423,"Forwinced":9424,"Fortheof":9425,"Forofof":9426,"ForIof":9427,"Formywith":9428,"Forshallpole":9429,"ForUnderofIt":9430,"Forthatnight":9431,"Forcoversas":9432,"withmy":9433,"withFor":9434,"withwith":9435,"withthank":9436,"withmay":9437,"withnor":9438,"withwhatever":9439,"withto":9440,"withHorror":9441,"withwinced":9442,"withtheof":9443,"withthemy":9444,"withofcaptain":9445,"withthetheunafraid":9446,"withnotofchance":9447,"withthethehow":9448,"dgSÃĨÃĥ":9449,"fromthat":9450,"frommenace":9451,"frommay":9452,"fromhave":9453,"fromshall":9454,"fromfate":9455,"fromnight":9456,"frombe":9457,"fromgods":9458,"fromunconquerable":9459,"frompit":9460,"fromthemy":9461,"fromofI":9462,"fromtheI":9463,"fromnotthe":9464,"fromnotstrait":9465,"frombutnot":9466,"fromnotyet":9467,"fromamthis":9468,"oftheof":9469,"ofthesoul":9470,"ofthebut":9471,"ofthechance":9472,"ofthematters":9473,"ofthethank":9474,"ofthealoud":9475,"oftheplace":9476,"oftheclutch":9477,"ofthethis":9478,"oftheunbowed":9479,"oftheofof":9480,"ofthethatme":9481,"ofthechancemy":9482,"ofthecriedofthe":9483,"ofthemygate":9484,"oftheandaloud":9485,"ofthecovershow":9486,"thankof":9487,"thanksoul":9488,"thankbut":9489,"thankLooms":9490,"thankgate":9491,"thankcircumstance":9492,"thankshade":9493,"thankfate":9494,"thankOut":9495,"thankwhatever":9496,"thankthis":9497,"thankFinds":9498,"thankofis":9499,"thankofclutch":9500,"thankmygods":9501,"thankishave":9502,"thankForshallpole":9503,"menaceof":9504,"menaceme":9505,"menacepole":9506,"menacesoul":9507,"menaceand":9508,"menacethethe":9509,"menaceFor":9510,"menaceplace":9511,"menacetears":9512,"menacemaster":9513,"menacewinced":9514,"menaceasthe":9515,"menacethetheunafraid":9516,"menaceyetof":9517,"menacetearsme":9518,"menacethisI":9519,"menacetheunafraid":9520,"menacememaster":9521,"menacebethe":9522,"menaceIFor":9523,"menacefellcircumstance":9524,"menacecoversmenace":9525,"chargedthe":9526,"chargedpole":9527,"chargednot":9528,"chargedcovers":9529,"chargedwith":9530,"chargedyet":9531,"chargedMy":9532,"chargedaloud":9533,"chargednight":9534,"chargedHow":9535,"chargedbe":9536,"chargedtheI":9537,"chargedstraitof":9538,"chargedForof":9539,"chargedofaloud":9540,"chargedmypit":9541,"chargedtostrait":9542,"chargedasstraitof":9543,"chargedamIn":9544,"chargedUndertheplace":9545,"chargedmenacetearsme":9546,"LoomsLooms":9547,"Loomsnor":9548,"Loomsshade":9549,"Loomsbloody":9550,"Loomsfate":9551,"Loomsyet":9552,"Loomstears":9553,"Loomshead":9554,"Loomsgods":9555,"LoomstheIt":9556,"Loomsofaloud":9557,"Loomsbutfind":9558,"Loomsastears":9559,"LoomstheOut":9560,"Loomsiswithof":9561,"Loomspoleshall":9562,"Loomsnotis":9563,"Loomschargednot":9564,"ayMMC":9565,"yearsI":9566,"yearssoul":9567,"yearswrath":9568,"yearsunafraid":9569,"yearsMy":9570,"yearsIn":9571,"yearsOut":9572,"yearsunbowed":9573,"yearsto":9574,"yearsmaster":9575,"yearsthemenace":9576,"yearstearsthe":9577,"yearsmypit":9578,"yearsyetscroll":9579,"yearsfindthank":9580,"yearsamofthe":9581,"yearsstraitLooms":9582,"yearsfromnight":9583,"yearsLoomsnor":9584,"Andsoul":9585,"Andfell":9586,"AndBeyond":9587,"Andcircumstance":9588,"Andclutch":9589,"AndOut":9590,"Andgods":9591,"AndFinds":9592,"AndmattersIn":9593,"AndForpit":9594,"Andisunbowed":9595,"Andfromhave":9596,"AndLoomspoleshall":9597,"cuÃ¶ÃĶ":9598,"mayme":9599,"maysoul":9600,"maybludgeonings":9601,"maypit":9602,"mayofof":9603,"mayofbut":9604,"maynotam":9605,"mayOutmay":9606,"maytof":9607,"mayHorrorthe":9608,"maymynot":9609,"maynotcharged":9610,"maycaptainwhateverfrom":9611,"maythatofI":9612,"maymatterspole":9613,"maycoversplace":9614,"mayForhave":9615,"Beyondand":9616,"Beyondplace":9617,"BeyondFinds":9618,"BeyondHorror":9619,"BeyondIof":9620,"BeyondForthe":9621,"Beyondshallthe":9622,"Beyondofpoleas":9623,"BeyondbutFor":9624,"BeyondfellisofBeyond":9625,"Beyondmaypit":9626,"rathpoleto":9627,"adscroll":9628,"wrathHow":9629,"wrathto":9630,"wrathHorror":9631,"wrathscroll":9632,"wrathstraitplace":9633,"wrathmayfate":9634,"wrathbutthetheunafraid":9635,"wrathfellgods":9636,"wrathstraitmywinced":9637,"wrathyearsstraitLooms":9638,"havesoul":9639,"haveclutch":9640,"havegods":9641,"haveunconquerable":9642,"haveto":9643,"haveImy":9644,"havehowAnd":9645,"haveamHow":9646,"haveandhowthe":9647,"havebutchance":9648,"havethattheshade":9649,"raitas":9650,"shallis":9651,"shallFor":9652,"shallclutch":9653,"shallIn":9654,"shallHow":9655,"shallmaster":9656,"shallscroll":9657,"shallofcaptain":9658,"shallmymatters":9659,"shallclutchI":9660,"shallUnderLooms":9661,"shallofnor":9662,"shallUndergate":9663,"shallfindbuttears":9664,"shallyearswrath":9665,"shallmaycoversplace":9666,"bludgeoningssoul":9667,"bludgeoningsgate":9668,"bludgeoningsunafraid":9669,"bludgeoningsMy":9670,"bludgeoningsplace":9671,"bludgeoningshead":9672,"bludgeoningswinced":9673,"bludgeoningsIthe":9674,"bludgeoningsofand":9675,"bludgeoningsthepole":9676,"bludgeoningsofnot":9677,"bludgeoningsbutmay":9678,"bludgeoningsFindsthefate":9679,"bludgeoningsamcircumstance":9680,"bludgeoningspunishmentsisBeyondthe":9681,"bludgeoningsthankbut":9682,"bludgeoningsmenacewinced":9683,"bludgeoningsBeyondbutFor":9684,"bludgeoningswrathmayfate":9685,"circumstancethe":9686,"circumstanceof":9687,"circumstanceme":9688,"circumstancenor":9689,"circumstancetheof":9690,"circumstanceasthe":9691,"circumstanceoffrom":9692,"circumstancethethat":9693,"circumstanceyearsof":9694,"circumstanceMypit":9695,"circumstancemyunconquerable":9696,"circumstancebludgeoningswrathmayfate":9697,"ightthe":9698,"norsoul":9699,"norunafraid":9700,"norcried":9701,"norunbowed":9702,"normaster":9703,"norwinced":9704,"norofhave":9705,"northethank":9706,"northeplace":9707,"noroftheI":9708,"normyILooms":9709,"norambut":9710,"northatmastersoul":9711,"Itgate":9712,"Itfate":9713,"Ityet":9714,"Itthenot":9715,"Itmaythe":9716,"Itofshall":9717,"Itofhave":9718,"Itfromfell":9719,"Itoof":9720,"Ittheheadthe":9721,"ItnotIthis":9722,"Itbuthavethe":9723,"ItfellIttheyet":9724,"Itmenacecoversmenace":9725,"Itchargedbe":9726,"nightand":9727,"yetbut":9728,"yetshade":9729,"yetfate":9730,"yetyet":9731,"yetgods":9732,"yetUndermy":9733,"yettheme":9734,"yetIttheyet":9735,"yetthecaptainunbowed":9736,"yetthethebut":9737,"yetyearsunafraid":9738,"yetBeyondplace":9739,"clutchis":9740,"Myof":9741,"MyBeyond":9742,"Myshade":9743,"Myunconquerable":9744,"MytheIn":9745,"Mythemenace":9746,"Mybutnot":9747,"Mycaptainthe":9748,"MyZÃĵ":9749,"MynotIcriedthe":9750,"Mybuthave":9751,"Mymattersthethe":9752,"Mypunishmentsnight":9753,"MyfromofI":9754,"Mymenacebethe":9755,"Mybludgeoningsofand":9756,"placefell":9757,"placealoud":9758,"placebe":9759,"placegods":9760,"placewinced":9761,"placeofme":9762,"placemethe":9763,"placeofunafraid":9764,"placeyearsthe":9765,"placethefate":9766,"placeasyears":9767,"placeofcovers":9768,"placemyBlack":9769,"placeForwrath":9770,"placemeMy":9771,"placeamhave":9772,"placeandpunishments":9773,"placeofthecovershow":9774,"placemayofof":9775,"placebludgeoningsamcircumstance":9776,"tearsof":9777,"tearsUnder":9778,"tearsfell":9779,"tearschance":9780,"tearsfrom":9781,"tearsshade":9782,"tearsunafraid":9783,"tearsbloody":9784,"tearscried":9785,"tearsnight":9786,"tearsHow":9787,"tearspit":9788,"tearsthenor":9789,"tearsthatchancemy":9790,"tearsstraitunconquerablebloody":9791,"tearspunishmentsIhow":9792,"tearsBeyondofpoleas":9793,"clutchsoul":9794,"clutchbloody":9795,"clutchIn":9796,"clutchbe":9797,"clutchFinds":9798,"clutchII":9799,"clutchoffind":9800,"clutchofunafraid":9801,"clutchthecharged":9802,"clutchtheHow":9803,"clutchthestrait":9804,"clutchofscroll":9805,"clutchofthesoul":9806,"clutchyearsIn":9807,"clutchAndsoul":9808,"clutchbludgeoningsbutmay":9809,"InLooms":9810,"Inyears":9811,"InIn":9812,"InHow":9813,"Inbe":9814,"Inhead":9815,"InFinds":9816,"Inofhave":9817,"Inthenight":9818,"Innotyet":9819,"Inthehead":9820,"Inchancecovers":9821,"InAndgods":9822,"Incircumstancemyunconquerable":9823,"Outsoul":9824,"Outnot":9825,"Outcried":9826,"Outbe":9827,"Outunconquerable":9828,"Outto":9829,"Outtheof":9830,"OutII":9831,"Outwraththe":9832,"OutthisI":9833,"OutIgate":9834,"Outofthat":9835,"Outcaptainthat":9836,"Outgodscovers":9837,"Outpoleyears":9838,"Outyearsunbowed":9839,"Outnightand":9840,"criedof":9841,"criedsoul":9842,"criednot":9843,"criedgate":9844,"criedshade":9845,"criedfate":9846,"criedgods":9847,"criedwraththe":9848,"criedofBeyond":9849,"criedIchance":9850,"criedisand":9851,"criedfellthethe":9852,"criedmattersmyaloud":9853,"criedcoversshade":9854,"criedyearsMy":9855,"criedshallmaster":9856,"criedyetfate":9857,"criedIncircumstancemyunconquerable":9858,"nightI":9859,"nightnor":9860,"nightHow":9861,"nightbe":9862,"nightgods":9863,"nightFinds":9864,"nightthenot":9865,"nighttheis":9866,"nightmethe":9867,"nightUndernot":9868,"nightIMy":9869,"nightofthat":9870,"nightisto":9871,"nightpunishmentsclutch":9872,"nightmeunbowed":9873,"nightmyunafraid":9874,"nightchargedasstraitof":9875,"Howthe":9876,"Howpole":9877,"Howcaptain":9878,"Howwith":9879,"HowOut":9880,"Howasthe":9881,"Howtheto":9882,"HowbludgeoningsUnder":9883,"Howmychance":9884,"Howmechance":9885,"Howandplace":9886,"Howmenacememaster":9887,"benot":9888,"beam":9889,"bethepole":9890,"beischarged":9891,"beandshade":9892,"befellmatters":9893,"bebludgeoningscovers":9894,"bewithHorror":9895,"bebludgeoningshead":9896,"betearsfrom":9897,"beOutunconquerable":9898,"whatevercaptain":9899,"whateverFor":9900,"whateverBeyond":9901,"whateverfate":9902,"whatevertheof":9903,"whatevertheshade":9904,"whatevertheHow":9905,"whateverofst":9906,"whateverpunishmentsbutgate":9907,"whateverplacewinced":9908,"whatevernightUndernot":9909,"BlackI":9910,"Blackthe":9911,"Blackthat":9912,"Blackwrath":9913,"Blackofof":9914,"Blackofhave":9915,"BlackBeyondthe":9916,"Blackcoversmycaptain":9917,"Blackyetgods":9918,"Blackbefellmatters":9919,"thisyears":9920,"thisfate":9921,"thisOut":9922,"thisofI":9923,"thisthehow":9924,"thisthethegate":9925,"thisofmay":9926,"thismystrait":9927,"thismasteryet":9928,"thismyhow":9929,"thisForwhatever":9930,"thisAndisunbowed":9931,"thiscriednot":9932,"headnight":9933,"headthis":9934,"headofplace":9935,"headmattershead":9936,"headhavepunishments":9937,"headfellaloud":9938,"headthatfind":9939,"headcircumstancebludgeoningswrathmayfate":9940,"headplaceandpunishments":9941,"headclutchtheHow":9942,"odsLoomsLooms":9943,"godsof":9944,"godsunafraid":9945,"godsIscroll":9946,"godsBeyondfellisofBeyond":9947,"godstearsof":9948,"Findsof":9949,"Findsthethe":9950,"FindsFor":9951,"FindsIn":9952,"FindsHorror":9953,"FindscaptainBeyond":9954,"Findswhateverand":9955,"FindspoleFor":9956,"FindsLoomschargednot":9957,"Findsclutchofscroll":9958,"FindsheadclutchtheHow":9959,"unconquerablethe":9960,"unconquerablesoul":9961,"unconquerableunafraid":9962,"unconquerablealoud":9963,"unconquerableUnderpunishments":9964,"unconquerablehowas":9965,"unconquerableMyof":9966,"unconquerableunconquerablethe":9967,"maspitthe":9968,"toG":9969,"tothe":9970,"tomy":9971,"topole":9972,"tothethe":9973,"togate":9974,"tohave":9975,"totears":9976,"tounconquerablebloody":9977,"toamam":9978,"toandpolefind":9979,"toForcharged":9980,"toBeyondFinds":9981,"toMythemenace":9982,"Horrorthebloody":9983,"Horrorandof":9984,"Horrorthegate":9985,"HorrorAndof":9986,"Horrorchanceof":9987,"HorrorIofthe":9988,"Horrormygods":9989,"Horrormenacealoud":9990,"Horrorbutnor":9991,"HorrorcaptainHorrorof":9992,"Horrorcoverstheof":9993,"HorrorcircumstanceMypit":9994,"Horrornightmeunbowed":9995,"pitpole":9996,"pitfate":9997,"pitofunafraid":9998,"pitmeof":9999,"pityetscroll":10000,"pitbutfrom":10001,"pitcaptainstraitbloody":10002,"pithowofand":10003,"pitLoomsshade":10004,"pitAndfromhave":10005,"pityetthethebut":10006,"masterfrom":10007,"masterbloody":10008,"masterthis":10009,"masterto":10010,"mastertheIt":10011,"mastermyis":10012,"masterUndernor":10013,"masterclutchpole":10014,"mastertheamthe":10015,"masterbutbutam":10016,"mastercaptainsoul":10017,"masterclutchsoul":10018,"masterInHow":10019,"masterFindsof":10020,"wincedsoul":10021,"wincednor":10022,"wincedbloody":10023,"wincedfate":10024,"wincedthefell":10025,"wincedtheme":10026,"wincedbutcircumstance":10027,"wincedthatmybut":10028,"wincedpunishmentsthe":10029,"wincedtoMythemenace":10030,"theofcovers":10031,"theofofof":10032,"theofIwhatever":10033,"theofwiththank":10034,"ofofam":10035,"ofofUnder":10036,"ofofbloody":10037,"ofofmythe":10038,"ofofofgodssoul":10039,"ofofItthenot":10040,"ofofHowthe":10041,"Ithenight":10042,"ItheItfromfell":10043,"Itheclutchbe":10044,"ofandthe":10045,"ofandthatIt":10046,"themystraitbloody":10047,"themyfromgate":10048,"themyofHorrorthe":10049,"themycriedsoul":10050,"themybebludgeoningshead":10051,"thepolethefell":10052,"thepoleIwrath":10053,"thepolechargedcovers":10054,"thepolethisForwhatever":10055,"IofFor":10056,"Iofcircumstance":10057,"Iofunconquerablehowas":10058,"thenotmay":10059,"thenotofnot":10060,"thenotnottheshade":10061,"thenotLoomsnotis":10062,"theyetthe":10063,"theyetunbowed":10064,"theyetIunbowed":10065,"theyetnorhead":10066,"ofIam":10067,"ofIIn":10068,"wraththenotand":10069,"wraththethankLooms":10070,"OuÃı":10071,"ofcaptainI":10072,"ofcaptainAndmattersIn":10073,"ofcaptainItoof":10074,"ofBeyondofthe":10075,"ofBeyondpolethethe":10076,"ofBeyondfindAnd":10077,"ofBeyondchancecircumstance":10078,"amtheUnder":10079,"amtheasam":10080,"Forthethank":10081,"FortheFindsofthe":10082,"Forthethisfate":10083,"thankthecharged":10084,"thankthenorBeyond":10085,"astheOut":10086,"asthetearsthenor":10087,"theImattersthank":10088,"theisofthank":10089,"theismymatters":10090,"thehowBlackIn":10091,"thehowhaveImy":10092,"thepunishmentsand":10093,"thepunishmentsscroll":10094,"thepunishmentsofbut":10095,"thepunishmentsForpit":10096,"theLoomsas":10097,"theLoomsmy":10098,"theLoomsunbowed":10099,"theLoomsofand":10100,"theLoomsthatpole":10101,"theInof":10102,"theInmatters":10103,"theInBlack":10104,"theInchargedForof":10105,"howtheamclutch":10106,"howthewithmay":10107,"howtheBlackI":10108,"withofnor":10109,"withofbutcried":10110,"withofUnderthat":10111,"maythebut":10112,"themenaceclutch":10113,"themenaceofsoul":10114,"themenacethefind":10115,"theadtheofIwhatever":10116,"thewrathofsoul":10117,"thewrathyearsI":10118,"thewrathInbe":10119,"ofmeofthe":10120,"ofnotI":10121,"ofnotshall":10122,"ofnotwhatever":10123,"offindfell":10124,"ofthankofis":10125,"ofshallmymatters":10126,"ofshallammymyfind":10127,"ofshallplaceofme":10128,"ofshallHowasthe":10129,"metheunbowed":10130,"methemaster":10131,"methebeam":10132,"andofgate":10133,"andofchancesoul":10134,"chancethescroll":10135,"chancethecriedmy":10136,"chancethemasterfrom":10137,"headtheIof":10138,"headtheMypunishmentsnight":10139,"=Ăćć":10140,">ăġ":10141,">ă\\~Â¬":10142,"`ĈÂ¡Â·":10143,"bÃĦÃĽ":10144,"kNÃ¸ÃĮ":10145,"qPÃģ":10146,"qPcÃ¸":10147,"ugwÃĮ":10148,"ugÃ¹Ã´":10149,"yÂºÃ«t":10150,"ĕ#ÂĨ":10151,"ĕ#Âĥ,":10152,"Ė\\Âľ":10153,"Ė\\Âĺ":10154,"ė&+ÂĪ":10155,"ĞÂ§=":10156,"ĠBX":10157,"ĠBY":10158,"theUndercircumstanceand":10159,"theUnderthethank":10160,"thefellbeOutunconquerable":10161,"thefindofasIn":10162,"thefindfellnight":10163,"theForunafraid":10164,"theForstraithave":10165,"theForchargedmypit":10166,"thenorthe":10167,"thenormypole":10168,"ofmymay":10169,"ofmyFinds":10170,"ofmyasfell":10171,"ofbutme":10172,"ofbutmethemaster":10173,"ofUnderHow":10174,"ofUnderpit":10175,"ofUnderfindfind":10176,"offromItunconquerable":10177,"offrombludgeoningsFindsthefate":10178,"ofyearsof":10179,"ofyearssoul":10180,"ofyearsFor":10181,"ofyearsnotnot":10182,"meofcircumstance":10183,"meofaloud":10184,"Â¡ÂĳĀ":10185,"Â¡ÂĳÂĺ":10186,"Â¡Âĳ|Ĉ":10187,"ÂĴÂĥ=":10188,"ÂĴÂĥÂĦ":10189,"Â®ÂĨÂĽ":10190,"ÃİIÃ®":10191,"ÂīÂŁÂ°Âķ":10192,"ÂīÂŁÂľ@":10193,"Ã¸dÂª":10194,"Ã¸dÃ°z":10195,"Ã¦dX":10196,"Ã¦du":10197,"ÃĪWG":10198,"Ã²RND":10199,"Ã£ÃĶKÃµÂº":10200,"ÂķēăÂ»":10201,"ÂķēÂĵĔ":10202,"amofmay":10203,"amofnorI":10204,"amofwhateverLooms":10205,"butofmatters":10206,"butofthethethankthe":10207,"coverstheshall":10208,"yearsthewhatever":10209,"yearsthechanceunconquerable":10210,"AndofcoversForfrom":10211,"Andmyofofthe":10212,"Andmyamtheasam":10213,"circumstanceandnorI":10214,"circumstanceandhaveof":10215,"circumstanceandthatwrath":10216,"norInot":10217,"headIthatme":10218,"headItscroll":10219,"#{Â·ğ":10220,")Â¸}":10221,")Â¸Âľ":10222,")Â¸Ė{%":10223,"*Ė+":10224,".Ę`ă":10225,".ÂĢÂĲ":10226,".ÂĢÂĳ":10227,"111":10228,";ĈÂ¬":10229,"<Âıę":10230,"@}!":10231,"BLsÃĥ":10232,"BLiÃ°":10233,"BgG":10234,"GÃħÃĨ":10235,"GÃħJtÃľ":10236,"HBR":10237,"HBÃĤÃĥ":10238,"IÃ½p":10239,"IÃ½ÃĬ":10240,"IÃİÃĨ":10241,"IÃİÃĦÃĵ":10242,"ImyfromtheI":10243,"Iamam":10244,"IamchargedamIn":10245,"Iandchanceshall":10246,"ILoomsof":10247,"ILoomsofthebloody":10248,"JÃķNÃĢ":10249,"JÃ¶Ãĳ":10250,"JÃ¶ÃĲÃļw":10251,"KÂªÃ¥":10252,"KÂªÃ³":10253,"KÂªJSÃĮ":10254,"Lwb":10255,"LwÃ©":10256,"OJo":10257,"PÃ¶ÃļcÃ¾":10258,"PÃĶU":10259,"QÃħTÃĥÃ¨":10260,"QÃĿq":10261,"RoG":10262,"RoTS":10263,"RyÃ³":10264,"RÃĸm":10265,"SXÃ¹":10266,"SXÃĨÃĩ":10267,"TÃ¬x":10268,"WMÃ¿BY":10269,"WÃĩW":10270,"WÃĩt":10271,"WÃĩnÃ»":10272,"Zwzr":10273,"ZwÃĬÃĤ":10274,"ZÃªEÃĭ":10275,"\\ą~Â£":10276,"]Â°_":10277,"]Â°Âı":10278,"]ÂĲ|":10279,"aÃĤÃ¼":10280,"aÃªLÃĮ":10281,"cgxDÃİ":10282,"eÃķf":10283,"hyÃģ":10284,"jÃ¡l":10285,"lÃ§b":10286,"oÃŀÃİ":10287,"pitas":10288,"pÃĶB":10289,"pÃĶhu":10290,"pÃĶÃĭc":10291,"qÃ«Ã¼yu":10292,"qÃ¨Ã½TÂºÃĥ":10293,"tYW":10294,"tYb":10295,"tYv":10296,"tonightthe":10297,"wÃ½ÃĢ":10298,"xÃĨg":10299,"yÃłkm":10300,"zFÃ¨":10301,"zÃ¯ÂµÃĢ":10302,"{%Â¡":10303,"{ÂĸÂĮ":10304,"{Â¤Ã·":10305,"{Â¤ÂĤ":10306,"|%Ă&":10307,"|ĞÂ©`":10308,"}}ÂĩĂ":10309,"āÂĻ$":10310,"Ą)Ď":10311,"ąÂĲÂĺ`.Âļ":10312,"ĆĐÂ¶":10313,"ĆÂĻĕÂį":10314,"ć<ď":10315,"Ĉ%ÂŀĎĂ":10316,"ĈÂ¡Â·":10317,"đ%ÂĶē%":10318,"ĘÂ¸ÂĸÂĲ":10319,"ĞÂ·Âī":10320,"ğÃ·#":10321,"ĠÃ¡ÃĦ":10322,"ġĖĐĂ":10323,"theandthe":10324,"theandandof":10325,"theandwitha":10326,"thethatshallfindbuttears":10327,"thewiththehave":10328,"thethankscroll":10329,"thechargedthatthatand":10330,"theyearspole":10331,"theyearsfromamthis":10332,"theItthemystraitbloody":10333,"theplaceheadthatfind":10334,"thetearsfindas":10335,"theHowme":10336,"thebethecoversthe":10337,"thebeofAnd":10338,"thebefindofbludgeonings":10339,"theBlackthethis":10340,"theBlackmepunishmentsAnd":10341,"theunconquerablethe":10342,"theunconquerableIOut":10343,"theunconquerablenotmattershead":10344,"thetothemyofHorrorthe":10345,"ofishowbut":10346,"ofchancescroll":10347,"ofchancethepoleIwrath":10348,"ofmenaceI":10349,"ofmenaceam":10350,"ofmenaceofHowIof":10351,"ofchargedbe":10352,"ofbludgeoningsthe":10353,"ofunconquerablethepunishments":10354,"ofunconquerableyearsamofthe":10355,"ÃĤAi":10356,"ÃĤIv":10357,"ÃĤIÃ©Ãĵ":10358,"Â»~!":10359,"ÂºSÃ¬":10360,"ÂºÃĥÃ¡Ãı":10361,"ÂºÃºÃĦbf":10362,"ÂºÃ¤Ãį":10363,"Ã¡Ãıd":10364,"Ã¡Ã§LÃĲ":10365,"ÃĦcT":10366,"ÃĦcÃº":10367,"ÃĦcRÃ¥":10368,"ÃĦÃļF":10369,"ÃĲOÃħ":10370,"ÃĲOWS":10371,"Â¿ĎÂģ":10372,"Â¿ĎĈ#":10373,"ÃĵÃĵÂªÃı":10374,"ÃĵÃıy":10375,"ÂĴ#Âļ":10376,"ÂĴÂ¶Â»;":10377,"ÂĴÂ¶ÂĤÂĬ":10378,"Ã®ÃĸkÃ°":10379,"ÃĺÃķÃĨÃ¼":10380,"Âģ?*":10381,"ÂģÂģę":10382,"ÂĽÂĪÂıÂī":10383,"Ã´Ã¦Ã¹":10384,"Ã´Ã¦Ã¼wÃ½":10385,"Â®ĂÂĵ":10386,"Â®ĂÂ´":10387,"Â®ĂÂ¶Âĩ":10388,"Â®Â«}ě":10389,"Âĭ[=Â¬ĕ":10390,"ÂĭĖ@":10391,"ÂĭĖÂĸĘÂŁ":10392,"ÂĻÂŀ:":10393,"ÃĩCJ":10394,"ÂĵĄĝ":10395,"ÂĵĄÂĪ":10396,"ÃĭÃĲÃº":10397,"ÃºHÃ¢ÃĦ":10398,"Âĥ#Âĥ":10399,"Âĥ>ÂĲ":10400,"ÂĥÂĥÂī":10401,"ÂĥÂĥÂĻÂĭ":10402,"ÂĳÂī\"":10403,"ÂĳÂĬÃ·ĖĆ":10404,"ÂĳÂ¯&ÂĹ|":10405,"ÂĳÂ¯Â¥;Ĕ":10406,"ÂĶÂ®Ā":10407,"ÂĶÂ§!Âį":10408,"ÂĶÂ§ąÂ«":10409,"Ã¥ÃĨhÃ¤":10410,"ÃŃti":10411,"ÃŃÃ¬Ãª":10412,"Â§ÂĩÂ¿":10413,"ÂİÂĺÂ¿":10414,"ÂİÂĺ@ē":10415,"Ã¾ÃİÃ¸x":10416,"ÃŀÃľÃĲ":10417,"ÂīÂ»Â¶":10418,"ÃĳYGÂµ":10419,"ÃĳÃ¶ÃĻÃļ":10420,"ÃĳÃŁj":10421,"Ã¸iW":10422,"Ã¸vWi":10423,"Â¬&Â«`":10424,"ÂĤÂľġ":10425,"ÂĤÂĭÂ¿":10426,"ÂĤÂĭÂ¢":10427,"ÂĩÂ¤$":10428,"Ã©zÃ®":10429,"myfellhead":10430,"myfellcaptaintheyet":10431,"myfellthemyfromgate":10432,"myfindwhatevercaptain":10433,"ÃįÃ®QBg":10434,"ÃĶuR":10435,"ÃĶus":10436,"Â¤(Ā":10437,"Â«Â¨ēĒ":10438,"Â«ÂĳÂ®.":10439,"Ã£ÃĤx":10440,"ÂĦ\\'":10441,"ÂĦÂ¶#ÂĦ":10442,"ÂķĔ!":10443,"ÂķĔ)":10444,"notandItheItfromfell":10445,"notamnot":10446,"notamamthe":10447,"notstraitFortheof":10448,"amunconquerableamfind":10449,"andnightsoul":10450,"andnightcovers":10451,"andnighttheLooms":10452,"butnotFindscaptainBeyond":10453,"Undernotmaster":10454,"captainthegods":10455,"findfindof":10456,"findfindandyet":10457,"chanceofthis":10458,"chanceofForthe":10459,"thethegodspole":10460,"thethegodsshallUndergate":10461,"punishmentsAndsoul":10462,"punishmentsnoroftheshall":10463,"punishmentsnormeofaloud":10464,"Forofnightmyunafraid":10465,"thankhavechance":10466,"wrathofForstrait":10467,"bludgeoningsofBlackthe":10468,"bludgeoningsUndercircumstance":10469,"Ithistheam":10470,"yetofpole":10471,"tearstheunbowed":10472,"tearsmethepole":10473,"tearsmeasBlack":10474,"tearsplaceunconquerable":10475,"tearsplacepolecried":10476,"Outmaymaster":10477,"Howyetthethewinced":10478,"thisIpitmeof":10479,"godstheOutmaymaster":10480,"pitthecoversbloody":10481,"butandwrath":10482,"butandtheMy":10483,"Undermymatters":10484,"!ÂĴÂĶÂ¸":10485,"\"&{":10486,"\"&ÂŀÂ¨":10487,"\")Â£Â©":10488,"\"đĜ.":10489,"\"ĚÂĵ":10490,"\"Â¢ē":10491,"#(=":10492,"#ă#":10493,"#ĒĆ":10494,"#Â®*":10495,"$ÂĿÂĸ":10496,"$ÂĿÂŀ":10497,"%!ėÂĺ":10498,"%+(":10499,"%]Âį":10500,"%]ÂĸÃĹ":10501,"%ę@|":10502,"%ěÂĴÂ±Â¸":10503,"&ă@":10504,"&Â¶Â©":10505,"&Âī|!;!":10506,"'Â´ÂŃÂ£":10507,"(:#":10508,"(:Âĥ":10509,"(ąÂģ":10510,"(Âĥ\"":10511,")#,:":10512,")ÂĻÂ¡$ēĄ":10513,")ÂĿğ":10514,")ÂĿÂ¸":10515,"**ÂĸăÂİ":10516,"*ąę":10517,"*ćÂĢ":10518,"*ćÂĺĂ":10519,"*ÂİÂĲÂ©":10520,"+ĞÂĤ":10521,"+ĞÂķĈ":10522,"+ÂįÂŃ":10523,",>Âİ":10524,",]+":10525,",ĂÂĺ":10526,",đÂĹ":10527,",Â°Â¶Âľ":10528,",Âĵ\\":10529,",ÂĦÂįÂĽ":10530,"->Âķ":10531,"-_ā":10532,"-Â»Ā":10533,"-Â¶ÂĬĔ":10534,"-Â«Â¶":10535,".\\[":10536,".\\ÂĨÂ©":10537,".ěÂ©":10538,".Âī<":10539,".Â¢Ă":10540,"/ĕÂ´Âķ":10541,"/ÂĨĂĚ":10542,"/Â¸ÂľÂ©":10543,"/ÂĶÂ¤_":10544,"586":10545,":%Âŀ":10546,":>ÂģÂģ":10547,":>ÂİĜ":10548,":`Ě":10549,":ĐÂĴ":10550,":Ğ)":10551,":Â§ÂİÂ¨":10552,";.Â´":10553,";Â¿ĕÂĵ":10554,"<?/.":10555,"<{;+ÂĤ":10556,"<đÂŃ":10557,"<Â±ĐĖÂİ":10558,"<Â¶ć":10559,"=|,":10560,"=Â»Ď":10561,">{Â§Đ":10562,"?ĕăÂŁ<":10563,"@,+":10564,"@ě?":10565,"@ěÂ·ĀÂĻ":10566,"@Âĭ`":10567,"@ÂŀÂŀ":10568,"AeÃĻ":10569,"AÃĪÃŁkÃķ":10570,"AÃĽvw":10571,"BÃĮv":10572,"CDÃªy":10573,"Czm":10574,"CÃĤtE":10575,"CÃ©Ã«I":10576,"DDÃ¹":10577,"DhiÃĻ":10578,"DqÃľDÃľ":10579,"Dtt":10580,"DtQÃ»":10581,"DÃ»D":10582,"DÃ®Ã¾":10583,"DÃĺk":10584,"DÃįÃ¡":10585,"Ecs":10586,"EÃĤÃ¥":10587,"EÃĤÃĢS":10588,"FHÃ¸nÃ»":10589,"FÃĨQ":10590,"FÃ¯Ã¶ÃĨ":10591,"FÃ´ÃĴ":10592,"HZW":10593,"HZÃĸ":10594,"HÃĬb":10595,"HÃĬWX":10596,"HÃ¹Ã¬":10597,"HÂµFÃ¯Ã¶ÃĨ":10598,"Iisfellof":10599,"IisofBeyondfindAnd":10600,"Ibutbutcircumstance":10601,"IbuttheunconquerableIOut":10602,"IUnderhave":10603,"IUnderscroll":10604,"Imattersandnightcovers":10605,"IItmatters":10606,"IItIpole":10607,"IMyplaceofcovers":10608,"IOutwrath":10609,"KNu":10610,"KNÃ¾ÃŁ":10611,"KÃ¡e":10612,"KÃĳyÃ£":10613,"MUqÃ½":10614,"MÃ¨Ã¬":10615,"MÃļÃīÃ¡Ã´":10616,"NpÃµ":10617,"Nsv":10618,"NÃ¶sÃĶ":10619,"NÃµtÃľ":10620,"NÃµyÃ¯":10621,"NÃ£ÃĸÃģ":10622,"ORGÃħÃĨ":10623,"OÃĤÂº":10624,"OÃĤÃĲÃ³":10625,"OÃĩoÃĳ":10626,"OÂªWÃ¥":10627,"PXÃ£":10628,"PuI":10629,"PÃ²UÃ¼":10630,"PÃ£Cm":10631,"QÃĻJ":10632,"RGÃ§":10633,"RLW":10634,"ReJ":10635,"RÂºB":10636,"RÃ¤ÃĮ":10637,"RÃ¤Âµ":10638,"STÃķl":10639,"SlÃĨÃħÃł":10640,"SÃĶÃĤ":10641,"ThÃª":10642,"TÃĮGX":10643,"TÃĶÃ¼":10644,"UÃ¡RÃ²":10645,"UÃ¼ÃºHÃ¢ÃĦ":10646,"VcA":10647,"VÃĤÃĵ":10648,"VÃĿs":10649,"WÃĺÃ½":10650,"WÃ½P":10651,"Xpf":10652,"XpÃº":10653,"XÃ¥Ã»LÃĿ":10654,"XÃ¶G":10655,"XÃ¶l":10656,"XÃ¿jÃ°":10657,"YÃħÃĴr":10658,"YÃĥW":10659,"YÃĮa":10660,"ZÃĵXg":10661,"ZÃĥQ":10662,"ZÃĩÃŃ":10663,"[~ă":10664,"[~Â¦":10665,"[Ďăĝ":10666,"[ĎÂ¨>":10667,"[ē/":10668,"\\\\\\@":10669,"\\Â¶(":10670,"\\ÂĲ@":10671,"\\ÂĲ]=|":10672,"]{ÂľÂĿ":10673,"]đ\"ē":10674,"]ğ!":10675,"]ğÂ´ē":10676,"]Â¤%":10677,"]Â¤)Â·":10678,"^ĝā":10679,"^ĝĐ-":10680,"^ÂĴēÂĢ":10681,"^Âľę":10682,"_'ÂĹÂĽ":10683,"_~Â«ÂĤÂ·-Ć&":10684,"_ėĞ":10685,"_ęÂ»":10686,"_ęÂ£":10687,"_ğ*ćÂĺĂ":10688,"_Â§Ğ":10689,"`@~":10690,"`{Ã·":10691,"`Â·+":10692,"aFY":10693,"aoj":10694,"aÃĲFwq":10695,"aÃ°Hz":10696,"aÃŀWR":10697,"bgÃ²":10698,"byN":10699,"bÃĭTÃĶÃ¼":10700,"bÃ¿Ãŀ":10701,"cÃ«Ã¡":10702,"cÃ«kÃĶ":10703,"cÃ¥Ãľ":10704,"cÃŀi":10705,"cÃ©Ã°":10706,"cÃīÂµ":10707,"dJÃºP":10708,"dÃ¦ÃİD":10709,"dÃ¦Ã±lWÃļ":10710,"eeÃ§ÃłZ":10711,"eqq":10712,"eÃĨtYb":10713,"eÃĵFÃĽ":10714,"eÃĺX":10715,"eÃ±Ãį":10716,"eÃ±ÃģÃ§":10717,"eÃĴF":10718,"gÃĨj":10719,"gÃ¥SÃĮ":10720,"gÃłÃĤ":10721,"gÃ¤P":10722,"hQÃ¥":10723,"hvw":10724,"hÃħÃ©L":10725,"hÃ¥Ã¸dÂª":10726,"hÃĶÃ¾Ãŀ":10727,"icÃıt":10728,"jKÃŃÃ¶":10729,"kÃĭÃ¿":10730,"lÃĬÃ±P":10731,"lÃ¶Ãį":10732,"lÃ¶ÃľÃĩ":10733,"mVÃ¹":10734,"nVgÃ¦":10735,"njh":10736,"nÃģJb":10737,"nÃĺp":10738,"nÃ¨s":10739,"nÃ±ÃŁ":10740,"nÃ©Ã¾ÃŁ":10741,"oÃĸÃĤ":10742,"oÃĸÃĵc":10743,"oÃ°ÃĽo":10744,"oÃªGwÃĩ":10745,"oÃ±Dq":10746,"oÃ±fÃ¸":10747,"oÃĶMÃ¢":10748,"oÃĶZMÃıÃ´":10749,"pEY":10750,"pEÃĥ":10751,"pxq":10752,"qWÃĽÃ«":10753,"qrÃĤ":10754,"rzÃĤÃļ":10755,"rÃ§ÃĪVCn":10756,"sjÃĲB":10757,"sÃĸÃ±":10758,"sÃ§i":10759,"sÃ£t":10760,"sÃ£Ã½":10761,"tofate":10762,"towithpo":10763,"wiÃĴ":10764,"wÃįÂµ":10765,"xjC":10766,"xÃ¨p":10767,"ywÃĴÃĥ":10768,"zrÃĵÃ¾Ãģ":10769,"zzx":10770,"zÃĦÃ±":10771,"{^)đ":10772,"|ĔÂĺÂľÂ§":10773,"|Â±Â±Â¿":10774,"|ÂĶÂ·":10775,"|ÂĶÂĮ+Ď":10776,"}'đ":10777,"}ÂģĚ":10778,"}ÂģÂ¦":10779,"~ėÂĢ":10780,"~ĜÂ«Â¨":10781,"~Â¬Ē":10782,"āÂ»Â¸":10783,"āÂ¬ĝ":10784,"āÂ¬ÂĤ":10785,"Ă&ÂĦ":10786,"ă&+":10787,"ă&%#Ď":10788,"ă,Âĩ":10789,"ăÂĶ?.ď":10790,"ĄÂ´Â°ď(":10791,"ąÂĴÂĨ+":10792,"ąÂ¸)":10793,"ąÂ©\"&{":10794,"ąÂŀÂ¤Ě":10795,"ąÂ§Âĵ":10796,"Ć-Ė":10797,"Ć@Â¸Đ":10798,"ć,ć":10799,"ćĕė":10800,"ćĕÂ¨ÂŃ":10801,"ćÂ¤ÂĨ*":10802,"Ĉ(-Âİ":10803,"Ĉ{ĈÂ¯":10804,"ĈĎÂķ":10805,"ĈÂ¸Â¯Âĥ":10806,"ĈÂ¤Ąē":10807,"ĈÂ¥ÂĹĐÂĴ":10808,"Ď)ĝ":10809,"ĎÂ¶~":10810,"ď>ĄÂ¿":10811,"ď}ÂĮ":10812,"ďĈĂ":10813,"ďÂİ$":10814,"ďÂĺą":10815,"ĐÂ«ā+Âı":10816,"đÂľ!":10817,"đÂĻ@":10818,"ĒĔÂļ,<":10819,"ĒĔ(:#":10820,"ĒÂ»Âĸ":10821,"ĒÂ»Â´~":10822,"ĒÂ´)":10823,"ĒÂį\"":10824,"ē^Âĸ":10825,"ē`_":10826,"ē`ÂĦ([":10827,"ēÂ±ĀÂĹ":10828,"ēÂ®<":10829,"ēÂ®ÂĬĀ":10830,"ēÂĳė":10831,"ēÂĳÂİ":10832,"Ĕ{@!":10833,"ĔĈ<":10834,"ĕĚÂļ":10835,"ĕÂĵě":10836,"ĖÂľę":10837,"ĖÂľĎÂ¶~":10838,"ėĒ%":10839,"ėÂĸ`=;Â§":10840,"ėÂĸĖÂľĎÂ¶~":10841,"ĘÂĥ{]":10842,"ĘÂĶÂıĞ":10843,"ę,Â·ĖÂĶ":10844,"ęěÂĤ":10845,"Ě^Ď":10846,"ěÂĭ-":10847,"ěÂĵÂģ":10848,"Ĝ'ğ":10849,"Ĝ\\Âĭ":10850,"ĝ&_":10851,"ĝ&|":10852,"ĝĈÂ§Â·":10853,"Ğ[Â®":10854,"Ğ]Âį":10855,"ĞÂ¶Â´;":10856,"ĞÂŀĝÂ·":10857,"ĞÂŁ-Â¢":10858,"ğÃĹÂ¦ÂĨ":10859,"Ġ{Âĵ":10860,"ĠÃ¯ÃĨOIy":10861,"ĠÃĺmi":10862,"ĠÃ¼Ã³c":10863,"ĠÃĪL":10864,"ĠÃ§D":10865,"ĠÃ§Ãł":10866,"ĠÂªÃ¾ÃĮx":10867,"ĠÃŁW":10868,"ĠÃŁÃ²":10869,"ġĐÂ§":10870,"ġę{":10871,"ġę^=":10872,"poleasamUndermy":10873,"asyearsofnotshall":10874,"theshallplaceyearsthe":10875,"theshallheadmattershead":10876,"thecircumstancetheUnder":10877,"thecircumstancethisshade":10878,"thenightstrait":10879,"thewhateverofam":10880,"thewhateverchanceIam":10881,"ofmattersam":10882,"ofmattersshallofnor":10883,"ofcoversyearssoul":10884,"ofofthestraitof":10885,"ofmaycriedcoversshade":10886,"ofMyHow":10887,"ofMythemenacethefind":10888,"ofclutchof":10889,"mestraitthe":10890,"mestraittoamam":10891,"mecoversIthealoud":10892,"mecoverswithofcaptain":10893,"memasterfrommenace":10894,"ÃĤÃĸÃ¢ÃĬ":10895,"ÃĤÃ¯Ã¥I":10896,"ÃĤÃ¯SÃ¬":10897,"ÃĤÃĥÃŃÃŀ":10898,"ÃģÃ½Ã¼Ã°":10899,"ÃģÃŀÃĵ":10900,"ÃģÃŀJÃĤ":10901,"isishavethe":10902,"isandpole":10903,"ischargedfind":10904,"Â¡,\"":10905,"Â¡Â¡ÂĦ":10906,"Â¡ÂĢÂŀ,":10907,"Â¡Â¥Â¢ÂĤ":10908,"ÃķÃĭÃı":10909,"ÃķÃĮP":10910,"ÃķÃİÃĻÃĵ":10911,"ÃķÃľT":10912,"Â²Â½0":10913,"Â»;(":10914,"Â»?Â¸Âĸ":10915,"Â»Âİ'Â´ÂŃÂ£":10916,"Â»Âī)":10917,"Â±Âķ\\Âı":10918,"ÃĸgÃĿÃĩÃģ":10919,"Â°ğāÂĻ":10920,"Â°ğ|)":10921,"Â°ÂķĂć":10922,"Ã»qÃĲ":10923,"Ã»qCDÃªy":10924,"Ã»ÃĨÃ´Âµ":10925,"Ã»ÃľÃİÃĵ":10926,"Ã»ÃľÃĶqg":10927,"Ã»ÃĪM":10928,"Ã»ÃĪÃ¼":10929,"Ã»ÃĶPuI":10930,"Ã»Ã¿ÃĸÃ«Ãł":10931,"Ã»Ã¿Ã¿RÂº":10932,"ÂºÃ¬yOu":10933,"ÂºÃĵÃĳ":10934,"ÂºÃ¯ÃĸK":10935,"Ã¡ÃĲÃĦ":10936,"Ã¡Ã¯Ãı":10937,"Ã¡Ã¯ko":10938,"Ã¡ÃħÃĪZÃı":10939,"Ã¡Ã¾oÃº":10940,"Ã¡Ãīt":10941,"Ã¡ÃīÃĻÃĦ":10942,"Ã¬Zn":10943,"Ã¬ZÃŃ":10944,"ÃĦÃİf":10945,"ÃĦÃİÃ³i":10946,"ÃĨTÃĬYo":10947,"ÃĨÃĥÃķÃĭÃı":10948,"ÃĨÃ¼G":10949,"ÃĨÃŃÃĪ":10950,"ÃĲÃłg":10951,"ÃĲÃłÃĳ":10952,"Â¿`Â¥":10953,"Â¿ÂĨĒÂ®":10954,"Â¿Â©+":10955,"Â¿Â©Âį":10956,"Â¿Â§?>":10957,"Â¿Â§ď`":10958,"Â¿Â¯Â®ĂÂĵ":10959,"Ã°XÃ®Ãº":10960,"Ã°bÂµ":10961,"Ã°Ã²Ã¥":10962,"Ã°Ã²jÃ«":10963,"ÂĸĔÂ¨\\":10964,"ÂĸÂĲ(":10965,"ÂĢ~ĝ":10966,"ÂĢ~Â¦":10967,"ÂĢÂ¶ġÂķ":10968,"ÂĢÂĳÂ¸":10969,"ÂĪ}ęĂ":10970,"ÂĪěĖą":10971,"ÂĪÂĢÂĢ":10972,"ÂĪÂĢÂ£Ā":10973,"ÃĵyrÃĲ":10974,"ÃĵÃ¼Ãĺ":10975,"ÂĴ_Â´":10976,"Âľ/ę":10977,"ÂľÂ¬Â¿":10978,"ÂľÂ¬Âĭ":10979,"ÂľÂįÂ£":10980,"Ã®Ãĥd":10981,"Ã®ÃĥÃĿÃ°YÃ©":10982,"Ã®Ãłao":10983,"Ã®ÃĶk":10984,"Ã®ÃĶÃĭÃĲÃº":10985,"Ã®ÂªÃĪÃ¬":10986,"Ã¯kÃ§":10987,"Ã¯Ã¬ÃģLÃ¢":10988,"Ã¯ÃĬQ":10989,"Ã¯ÃİV":10990,"Ã¯ÃĻR":10991,"ÃħcÃľO":10992,"ÃħyÃ¥":10993,"ÃħÃİYS":10994,"ÃħÃłUQ":10995,"ÃĬÃ¾Ã½":10996,"ÃĺyÃ½":10997,"ÃĺyÃ¨":10998,"ÃĺÃ¾Ãįk":10999,"ÂĽÃĹÂĵ^":11000,"Ã´uÃ¶Ãº":11001,"Ã´ÃĤÃ´Wh":11002,"ÃĥÃħÃ¾":11003,"ÃĥÃ§j":11004,"ÃĥÃµÃĬ":11005,"ÃĥÃ²Ld":11006,"Â®ÂĢ$":11007,"Â®ÂįÂĿ|":11008,"Â®ÂĦġ":11009,"ÂĨ*ÂĲÂ¬":11010,"ÂĨĄÂģ":11011,"ÂĨÂ©Â®ă":11012,"ÂĨÂ¢Â¬":11013,"Âĭ(%ÂĤ":11014,"Âĭć)":11015,"ÂĭÂĽ%":11016,"ÂĭÂĽĐ@":11017,"Â£Â¡Âĩ":11018,"Â¸ÂĴÂ®":11019,"Â¸Âį(":11020,"Â¸ÂĦÂĩ":11021,"ÂĻěÂ«":11022,"Ã½Ã¬T":11023,"Ã½ÃµÃĺÃ¿":11024,"ÃĩMIÃ¼":11025,"Â¦Ć?Â¦":11026,"ÂĲ$ÂĴÂĩġ":11027,"ÂĲÂ©Âİ[":11028,"ÂĲÂĹă":11029,"ÂĲÂĹÂľ":11030,"ÂĵĔ\"":11031,"ÂĵÂĢÂĮ":11032,"ÂĵÂĪĘÂ¸":11033,"ÂĵÂĨĞ^ÃĹ":11034,"ÂĵÂĨÂīÂķ":11035,"ÂĵÂįÂ©":11036,"ÂĵÂįÂĺ":11037,"Ãªre":11038,"ÃªriÃľ":11039,"ÃªÃĪbÃ¯":11040,"ÃªÃĪÃĦpt":11041,"Ã·Â°Âģ":11042,"Ã·ÂĤ_>":11043,"Ã·ÂŃÂĩćÂĲ":11044,"Ã¼fD":11045,"ÃĭhÃ©Ã³ÃĺÃª":11046,"ÃĮÃĥÃĻÃł":11047,"Âı%)":11048,"Âı,Âģ":11049,"Âı,ÂŁ/":11050,"ÂıÂĹÂ°":11051,"Ã«ÃĦÃŃD":11052,"Ã«ÃĻÃĥÃµÃĬ":11053,"ÃºÃĮQ":11054,"Â¨)+\"Â¡":11055,"Â¨:@":11056,"Â¨:ÂŀÂ¬":11057,"Â¨ÂļÂİÂŀ":11058,"Â¨ÂŃ]Ē":11059,"Â©ĘĕÂ«":11060,"Â©ĝď#":11061,"Â©Â¸Âĩ,":11062,"Â©ÂıÂ¡Â¡ÂĦ":11063,"ÂĳÂĵ&":11064,"ÂĶĕÂĭ":11065,"ÂĶĝÂĶ":11066,"ÂĶÂĥġ":11067,"ÂĶÂĬÂĲ":11068,"Âŀ?/":11069,"Ã¥Cw":11070,"Ã¥TM":11071,"Ã¥vX":11072,"Ã¥vMÃ¨Ã¬":11073,"Ã¥ÃħÃĵÃĵ":11074,"Ãİkut":11075,"ÃİkÃ´ÃĬÃĮ":11076,"ÃİÃĲz":11077,"ÃİÃĬj":11078,"ÃľVÃ¬J":11079,"ÃľVÃłÂºzÃ¯":11080,"Ãľyh":11081,"ÃľÃºÃ³ÃĽ":11082,"ÃľÃĿu":11083,"ÃľÃĿÃª":11084,"ÃŃÃķc":11085,"ÃŃÃķxÃ¶m":11086,"Â§Â¬Ē":11087,"Â§ÂĮ{":11088,"Â·ÂĢÂĶÂģ":11089,"Âİ!ÂŁ":11090,"Âİ(Â«":11091,"ÂİÂĸ*":11092,"Ã¾SM":11093,"Ã¾ÃĤhq":11094,"Ã¾ÃµÃīÃ²":11095,"ÃĻHÃ²ÃĪÃĢ":11096,"ÃĻÃĸÃļ":11097,"ÃĻÃŃiÃĬ":11098,"ÃĻÃłD":11099,"ÃŀVEÃĤÃĢS":11100,"ÂīďÂ£ÃĹ":11101,"ÃıÃģR":11102,"ÃĳOÃĢ":11103,"ÃĳÃįNÃ¹":11104,"Ã¨ÂªR":11105,"Ã³MÂº":11106,"Ã³SÃ¥Cw":11107,"Ã³cEPÃĳ":11108,"Ã³fÃĽc":11109,"Ã³ÃĻrjJÃķ":11110,"Ã¸Ã¼ÃĮ":11111,"Ã¸ÂªÃĺÃº":11112,"ÃĢÃĩNÃ¼":11113,"Â¬$ÂĪ)":11114,"Ã¦WÃĤ":11115,"Ã¦WÃ«":11116,"Ã¦rÃº":11117,"Ã¦ÃĩÃ¿ÃĦ":11118,"Ã¶oQ":11119,"Ã¶opÃĶÃĭc":11120,"Ã¶Ã½t":11121,"Ã¶Ã½Ã³":11122,"Ã¶Ã¾bÃģ":11123,"Ã¶ÃłSÃĶÃĤ":11124,"Ã¹SY":11125,"Ã¹Ã®Ãį":11126,"Ã¹Ã¢Ã¬":11127,"ÃĹÂ¿ÃĹÂĹ":11128,"Ã±Ã´Ãĺ":11129,"ÃĪKmÃľ":11130,"ÃĪKÃ¬ws":11131,"ÃĪÃ¬ÃĽÃ¦YS":11132,"ÃĪÃµOÃ©":11133,"ÃłMÃĥ":11134,"ÃłMÂµGU":11135,"ÃłÃ¶Ãķ":11136,"ÃłÃµaÃª":11137,"ÂĤġÂĳ-ÂĻ":11138,"ÂĤÂĢÂ¥":11139,"Âĩ^Ą":11140,"ÂĩġÂ©ĘĕÂ«":11141,"ÂĩÂķĞ-":11142,"ÂĹ<ÂĪ(":11143,"ÂĹĂÂĥ":11144,"ÂĹĖÂ¿ć":11145,"ÂĹÂ¥ÂĿ>ą":11146,"Ã§Ã¿W":11147,"Ã©HÃĴ":11148,"Ã©LÃīU":11149,"Ã©ÃĦGÃĿ":11150,"ÃīfÃļÃ¸":11151,"Ãīur":11152,"ÃīuSh":11153,"ÃīÃĦKÃ¹":11154,"ÃĿaÃ¥Ã°":11155,"ÃĿÃ«Âº":11156,"myamLoomscried":11157,"mystraitclutchI":11158,"mywithcircumstancetheof":11159,"myAndIamam":11160,"myBeyondme":11161,"mycircumstancethehow":11162,"myMyI":11163,"myMygate":11164,"myBlackHorrormygods":11165,"myItheFinds":11166,"Ã¤ÃĥÃģ":11167,"ÃļÂµÃ»":11168,"ÃįKÃ«yÃĪ":11169,"ÃįÃļV":11170,"Â´ēÂŀÂĽ":11171,"Â´ğāĎ":11172,"ÂŁ+~Â£":11173,"ÂŁ/ď":11174,"ÂŁ|>":11175,"ÂŁęĔĄ":11176,"ÂŁÂļÂĦ":11177,"ÂŁÂķ^ÂĶ":11178,"Â¤>Âģą":11179,"Â¤`~ė":11180,"ÂªÃ»Ã´z":11181,"ÂªÃŃÃºr":11182,"Ã²pmÃį":11183,"Ã²Ã¾Ã«Ãı":11184,"Â«ęÂ±":11185,"Â«Â®Â©":11186,"Â«ÂĭÂ»":11187,"Â«ÂĭÂĬ":11188,"Â«ÂŁā":11189,"ÂĬ|~":11190,"ÂĬĔÂį+":11191,"ÂįÂŁĄÂ¨":11192,"ÂįÂŁÂĦĀ":11193,"Âļ*ÂĤ":11194,"Âļ*{'":11195,"ÂļĘÂ¿":11196,"ÂļĘÂ¦(Âĥ":11197,"ÂļÂĸ&Âļ":11198,"ÂļÂĨÂĤ":11199,"ÂļÂıĈ":11200,"ÂļÂ·Âĵ":11201,"ÂļÂ¤Âı":11202,"ÃĽXB":11203,"ÃĽXÃĺv":11204,"ÃĽÃ¾v":11205,"ÃĽÃ¾Ãħ":11206,"ÃĴÃĥy":11207,"ÃĴÃ²ÃİI":11208,"ÃĴÃĴhÃħ":11209,"Â¯ÂıÂĵÂ¸":11210,"Ã¿ÃĵÃī":11211,"Ã¿ÃĶÃľ":11212,"Â¥.ĒÂ»Âĸ":11213,"Â¥Â¨Â«>":11214,"ÂĺÂ¦ĝ":11215,"Ã£ÃĲWÃĿ":11216,"ÂĦ~-Â¶":11217,"ÂĿ!]":11218,"ÂĿ:,":11219,"ÂĿÂ´Âŀ]":11220,"ÂĮćÂĢ":11221,"ÂĮďÂ±":11222,"ÂĮĚ_":11223,"ÂĮÂĵĐ":11224,"ÂĮÂ¨ē":11225,"ÂĮÂĥā":11226,"yethavetheyetIunbowed":11227,"Âķ(ÂŃ":11228,"ÂŃĄĒÂĥ":11229,"ÂŃĖ/":11230,"ÂŃĖÃĹ":11231,"ÂŃÂ£Âķ}":11232,"ÂŃÂŀ=ġ":11233,"polewithto":11234,"polewithwhateverFor":11235,"ammastertearschance":11236,"amofandhave":11237,"andmethetheFinds":11238,"butfindhowI":11239,"butwithfate":11240,"butmayFindsLoomschargednot":11241,"UnderhowpolewithwhateverFor":11242,"UnderbludgeoningsLooms":11243,"UnderbludgeoningsMyshade":11244,"fellmatterspole":11245,"fellthethebebludgeoningscovers":11246,"captainofBlack":11247,"captainofForthethank":11248,"captaintheyetofthecriedofthe":11249,"howAndpole":11250,"findthankcaptainBeyond":11251,"straitplacepolethat":11252,"straitbebut":11253,"straitbeUnderam":11254,"withamcharged":11255,"chancehowpole":11256,"chancehowHorrorthegate":11257,"mattersandOutII":11258,"mattersandFindsthethe":11259,"mattersmenacebe":11260,"mattersmenacechargedwith":11261,"mattersIngate":11262,"mattersBlackamfrom":11263,"mattersBlackmattersmay":11264,"thethechanceMybutnot":11265,"thethepunishmentsmyMygate":11266,"punishmentsBeyondofunafraid":11267,"punishmentsclutchchancethecriedmy":11268,"ForfromofofUnder":11269,"Forwrathmyis":11270,"fromfellme":11271,"fromfindunafraid":11272,"ofthewiththenot":11273,"ofthewiththeshade":11274,"yearsofnightbe":11275,"bludgeoningstopole":11276,"Andchancemenace":11277,"Andchanceclutchthecharged":11278,"Andchargedwhatever":11279,"BeyondMythewrath":11280,"havepunishmentsFinds":11281,"shallthewhatevers":11282,"shallpolethepunishmentsscroll":11283,"bludgeoningschargedBlack":11284,"bludgeoningschargedhowhead":11285,"Itunconquerablepitpole":11286,"tearsmenacecaptain":11287,"criedofthemecharged":11288,"HowBlacktotears":11289,"whateverwithUnderFindsas":11290,"whateverLoomsIhavethe":11291,"BlackcaptainmyMyI":11292,"Blacknightthatthe":11293,"thispolegodsof":11294,"godsForme":11295,"godsForsoul":11296,"godsItHowmechance":11297,"tostraitIhead":11298,"HorrorhowAndofcoversForfrom":11299,"HorrorLoomsgate":11300,"Horrorhavefate":11301,"wincedcircumstanceHow":11302,"theofmattersoftears":11303,"theofcircumstanceofsoul":11304,"theofbeInot":11305,"ofandofheadI":11306,"butheadIfind":11307,"butheadyetand":11308,"themyIIthenight":11309,"Outamyet":11310,"Outamaspitthe":11311,"OutambludgeoningsMy":11312,"!Â·Ĉ":11313,"!ÂĹĕ":11314,"!ÂĬĚ":11315,"!ÂļÂıÂ´":11316,"!ĀÂĻÂ±":11317,"!ē%Ĝ":11318,"\"Ąė":11319,"\"ġ;ć":11320,"\"Â®[ÂĨ":11321,"\"Â©ÂĺÂĪÂŃ":11322,"\"Âī!":11323,"\"ÂĤÂĤÂ°":11324,"\"ÂļÂĤ":11325,"\"Â¯+":11326,"#;_":11327,"#Đ'":11328,"#ġěę":11329,"#ÂĢĘ":11330,"#ÂĵĂ":11331,"#ÂŃ:Ĝ":11332,"$//Âģ":11333,"$|ÂĲ":11334,"$ĈÂİÂ´ÂĴ":11335,"$ĒĝÂį":11336,"$ęĀĈ":11337,"$ÂĩÂ¥":11338,"$ÂĬĐĄ":11339,"$ÂķąÂ·":11340,"%.Đ":11341,"%@ÂĹĖ":11342,"%ē(":11343,"%ĕÂĬĒ":11344,"%Â¿Âĸ":11345,"%ÂĢÂ¸ÂŁ":11346,"%ÂĴÂ¡":11347,"%Â®ÂŁ*":11348,"%Âĳ?#:":11349,"%Â¢Â´":11350,"%Â¤ÂĴÂ¶":11351,"%Âį|Â·":11352,"%ąÂ«ć":11353,"&-ĎĔ":11354,"&Ã·Ā":11355,"&ÂĥÂ®":11356,"&Âŀ.Ę":11357,"&ÂľÂĤ:":11358,"'Â¢^ÂĴ":11359,"'Â¤Â«":11360,"'\"Â¢ÂģÂī":11361,"()Â±":11362,"(ĖÂ¯Âĸ":11363,"(ĝÂĻÂĵ":11364,"(Â»ā":11365,"(ÂĴĒ":11366,"(Â¶ă":11367,"(ĆĐđ":11368,"(ÂıÂ´ĕ":11369,"(}Â¿Â¸ÂĶ^":11370,"(ÂĦđÂĶ":11371,")):":11372,")|Â¢":11373,")ęĚ+":11374,")ÂŃ$ÂĻ":11375,")ć:[":11376,"*ÂĪÂ¨":11377,"*Â¦{#ÂĻ":11378,"*ÂŀĎ":11379,"*ÂĮ/`":11380,"*`Â¬-":11381,"*#[+ĞÂķĈ":11382,"+-Â©":11383,"+}Â«":11384,"+Ą_Âķ":11385,"+Â»ÂŁÂ¢":11386,",Ĉ=":11387,",Ē?":11388,",Ĕ'":11389,",Â¦ĀÂĴ":11390,",Ã·Â»ĘÂĩ":11391,"-Â¦Âģěā":11392,"-ÃĹěĒ":11393,"-*Âİ/":11394,".@Ě":11395,".ĄÂ¯":11396,".ĝđę":11397,".Â¡\\ÂľÂĤ":11398,".Â®ą":11399,".ÂĹÂĸĔ":11400,".%!Ę":11401,"..ďÂ»":11402,".\"\"đ>ă\\~Â¬":11403,".,ÂĶ'":11404,"/^ė":11405,"/Âľ:":11406,":}ÂĴ":11407,":ĈÂĳ":11408,":Âľ(ĆĐđ":11409,":ÂĮÂ·":11410,":ÂīÂŁÂĥ":11411,":ÂĭÂĺÂķ":11412,";ÂŀÂ´Âİ#":11413,";Â¢ÂĦ":11414,";Â´|":11415,";Â¯Âģ":11416,"<Ĉĝă":11417,"<Â®Âı":11418,"<ÂĳÂ¨":11419,"=`ē":11420,"=Â£ÂĤ":11421,"=ÂīÂŀÃĹ!":11422,"=Â«ė-Âİ":11423,">~+ÂĤ":11424,">Â§@":11425,">ÂĤĖÂľę":11426,">`ĈÂĶ":11427,">ÂĪÂĿ;Â´|":11428,"?Â¢Âĵ":11429,"?ÂĤąÂıÂ¶":11430,"?ÂŃĒÂ«":11431,"?!^,":11432,"@\\Â¡":11433,"@Ė?":11434,"@ÂĸĘÂį":11435,"@ÂĶÂ»~":11436,"@ÂĦĜ":11437,"@Â¡Â¿ÂĮÂ¯":11438,"AUÃīur":11439,"AoÃ¼Ãĥ":11440,"Avl":11441,"Awo":11442,"AÃķzÃļ":11443,"AÃºÂº":11444,"AÃĳiAS":11445,"AÃ¸ÃľÃŃ":11446,"AÃ©ÃĨÃŃÃĪ":11447,"AÃīPÃĳ":11448,"AÃ¤ÃªY":11449,"BFÃ»Ã¿Ã¿RÂº":11450,"BHÃ³B":11451,"BuÃģ":11452,"BÃĤÃĶ":11453,"BÃ»cuÃ¶ÃĶ":11454,"BÃĬMy":11455,"BÃ¿ÃĨÃĽ":11456,"Cfjk":11457,"CÃģu":11458,"CBÃ¯d":11459,"CxÃĤbw":11460,"DLÃ¡Ã½":11461,"DfÃ¡":11462,"DkD":11463,"DÃģgÃ§":11464,"EWY":11465,"EÃ©Ãĭw":11466,"EFÃłÃº":11467,"FOW":11468,"FÃķM":11469,"FÃ¥J":11470,"FÃ¾Ã®":11471,"FÃ¿Ã°":11472,"FÃ£Ã¿":11473,"GÃĵÃ¸Ã¼ÃĮ":11474,"GÃĪÃ¤":11475,"GÂªÃ¯":11476,"GÃŁÃĥ":11477,"HYÂº":11478,"Hds":11479,"HvÃ°":11480,"HÃķÃ¼":11481,"HÃ°i":11482,"HÃĥÃĽVc":11483,"HÃ«ÃĬ":11484,"HÃ¸An":11485,"HJAÃĺ":11486,"ITXÃĦ":11487,"IoÃī":11488,"IsÃ¯t":11489,"IÃ¸S":11490,"IÃ±Ãķ":11491,"IÃ¿Ã¡Ãº":11492,"IfellIbuttheunconquerableIOut":11493,"Ipunishmentscried":11494,"IwithwrathofForstrait":11495,"IfromFindsHorror":11496,"Iyearsofofofgodssoul":11497,"Imaynorunafraid":11498,"IBeyondcried":11499,"Iplaceunconquerable":11500,"Igodsmyfind":11501,"IwincedwithofUnderthat":11502,"Itascriedof":11503,"INQYÃĮa":11504,"Iclutchamunbowed":11505,"Iwhateverstrait":11506,"JeKÃĴ":11507,"JgywÃĴÃĥ":11508,"JhÃĦÃĭ":11509,"JvlÃ¶ÃľÃĩ":11510,"JÂºÃ«Ã°V":11511,"JÃĩÃ¦":11512,"JÃİa":11513,"JÃŃÃ¹Ã¢":11514,"JÃĳu":11515,"JÃĻÃŃÃ©H":11516,"JÃĪÃµK":11517,"KQÃĶ":11518,"Kzu":11519,"KÃĲÃ¥j":11520,"KÃĿu":11521,"Ltao":11522,"LÃĦÂµ":11523,"LÃ´T":11524,"LÃ½ST":11525,"LÃİX":11526,"LÃ¨ÃĬ":11527,"LÃĴÃĳOÃĢ":11528,"Maa":11529,"MeÃºÃŁ":11530,"MÃķO":11531,"MÃ¬ÃĸgÃĿÃĩÃģ":11532,"MÃħu":11533,"MÃľU":11534,"MÃĻvL":11535,"MÃŀT":11536,"MÃ¹x":11537,"MÃĽW":11538,"Nzcw":11539,"NÃĺÃŃKÃ¤":11540,"NÃŃÃľK":11541,"NÃ³a":11542,"NÃĥÃ®gOm":11543,"OtÃ²":11544,"OxN":11545,"OyÃĲ":11546,"OÃ¦Ã¨":11547,"OaÃĲVÃ«":11548,"PkÃĿ":11549,"PÃĥÃĩC":11550,"PÃıÃ¼":11551,"PÃĪÃİ":11552,"PÃīÃļ":11553,"PÃįT":11554,"PÃŁÃĦÃİÃ³i":11555,"PÃ³ÃłÃĥj":11556,"QxÃĵS":11557,"QÃĸÂº":11558,"QÂºÃŃS":11559,"QÃ¯H":11560,"QÃĥÃŃ":11561,"QÃ¼QÃħ":11562,"QÃºFÃŃ":11563,"QÃ¡Ã°Ã¯Ã¬ÃģLÃ¢":11564,"RaÃİ":11565,"RmK":11566,"RÃ´KQÃĶ":11567,"RÃ³w":11568,"RÃ±ÃĶ":11569,"RÃīÃ§":11570,"RÃŃÃ¬o":11571,"RÃ¯ÃĻÃ¼YÃ§":11572,"RAfEÃĤÃ¥":11573,"SÃķEFÃłÃº":11574,"SÃ½Ã¦ÃºV":11575,"SÃĭg":11576,"SÃ©oh":11577,"SFÃĨI":11578,"Tjv":11579,"TqnÃ¹Ãº":11580,"TÃĺÃ¡":11581,"TÃĩf":11582,"TÃľUd":11583,"TÃĻÃ¥":11584,"TÃĢC":11585,"TÂªmÃ¨":11586,"TPRq":11587,"TSÃ±ÃīÃį":11588,"UYUÃŃ":11589,"UjÃĢÃĪ":11590,"UÃªÃĵÃ³":11591,"UÃľHBR":11592,"UÃ³C":11593,"UÃłÃ°bÂµ":11594,"UÃ©iÃħÃħE":11595,"VYÃģ":11596,"VZÃ¯":11597,"VÃĨÃĺKÃ¨":11598,"VÃĵÃ¹":11599,"VÃ®ÃĽ":11600,"VÃ´Ãıl":11601,"VÃ¾Ã¸Ãº":11602,"VNQk":11603,"VSÃ¥ÃĨXÃĴÃ¸":11604,"WaX":11605,"Wuo":11606,"WvÃĵM":11607,"WÃºÃĩ":11608,"WÃĻÃĪ":11609,"WÃŀcÃĿU":11610,"WzFÃĤ":11611,"WQzN":11612,"XrÃĨD":11613,"XÃķN":11614,"XÃĽÃļ":11615,"XPÃ¶a":11616,"XÂºÃĵz":11617,"YiLÃįS":11618,"YlbÃ¿":11619,"YÃĵU":11620,"YÃ³g":11621,"YÃĪÃ§F":11622,"YÃłTZ":11623,"ZfÃ¨":11624,"ZÃ¬Ãľ":11625,"ZÃ°Ãŀp":11626,"ZÃ©Ã«":11627,"ZÃīÃĦÃ°":11628,"ZBÃŁUÃĥÃ¨":11629,"ZLÃ«F":11630,"[&}Âĭā":11631,"\\ĂÂķ":11632,"\\Âģ-":11633,"\\Â§;":11634,"\\Âĺ^":11635,"\\Â¸Ē;Ĉ":11636,"]Ğ,>":11637,"]Â£[.Âī":11638,"]Â¦Â¨Âļ":11639,"]ÂıÂ¯@Âŀ":11640,"]Â·Ē":11641,"]ÂĬĆÂ¡":11642,"]ÂĦÂ¶>":11643,"]ē^Â±":11644,"]Ã·Â¯Ğ":11645,"]ÂĩÂķĕ":11646,"]ÂĺÂ¦Â»":11647,"^ďÂ¤Â´?":11648,"^ĔÂ£Â´":11649,"^Â¡`":11650,"^Ã·Ğ$":11651,"^ÂļÂģÂļ":11652,"_ġ|":11653,"_ÂĢ[":11654,"_ÂĻ(ĕ":11655,"_ÂŁ}":11656,"_\"Â±%ę@|":11657,"_]Â°ĆÂĻ":11658,"_\">/":11659,"__ė~Â£":11660,"_(đĒÂ¸":11661,"`āÂ±ĞĐ":11662,"`ĒĘ":11663,"`ė#Âĺ":11664,"`Â¿^":11665,"`Âĸ(ÂĴĒ":11666,"`ÂŁĒ":11667,"aho":11668,"aqMÃħu":11669,"aÃ¸ÃıÃ´":11670,"aPSÃĦÃľK":11671,"bÃķe":11672,"bÃĵÃĢn":11673,"bÃ¥cÃ©Ã°":11674,"bÃĳsz":11675,"bÃ±ÃĭÃĲ":11676,"bÃłÃĤ":11677,"bÃ§Ã«ÃĻÃĥÃµÃĬ":11678,"bXIdB":11679,"bEoÃĦr":11680,"cdÂª":11681,"cÃ´aÃ²":11682,"cÃ²ÃĨ":11683,"cÃĽG":11684,"cPÃ£ÃŃ":11685,"dkyjH":11686,"dtÃ¢":11687,"dÃĮE":11688,"dÃİl":11689,"dÃ¤ÃĳÃ£":11690,"dÂµT":11691,"dÃ²Ã«":11692,"dÃ¢HQ":11693,"dÃ£m":11694,"dÃŃÃĶf":11695,"dAÃŁAe":11696,"emÃ¬F":11697,"eÃŃÃĬ":11698,"fiÃĭj":11699,"fuh":11700,"fÃĺe":11701,"fÃªÃĩI":11702,"fVÃĮÃ¶":11703,"foÃĺÃŀ":11704,"fAÃħÃĩ":11705,"fOKwÃ¡":11706,"fQuÃį":11707,"fdÃ«Ãģ":11708,"gÃĤf":11709,"gÃķHo":11710,"gÃĦÃĻ":11711,"hhÃ£":11712,"hÃĥw":11713,"hÃ¼ÃĤÃŀ":11714,"hÃĳko":11715,"hÃ¨ÃĻÃĮ":11716,"hÃ¿ÃĲWZ":11717,"hcÃ±Q":11718,"iÃĩÂµ":11719,"iÃ©ÃĲ":11720,"iNÃĢwÃģ":11721,"iVoÃ¸d":11722,"ibÃºÃīF":11723,"jÃĬÃĳ":11724,"jÃŀzÃį":11725,"jÃĳo":11726,"kÃģÃĭÃĢÃŃ":11727,"kÃºN":11728,"kÃ¸X":11729,"kÃĪo":11730,"kÂµÃĦi":11731,"kÃ¢o":11732,"kÃĢÃħv":11733,"kIiÃ»":11734,"lÃ»j":11735,"lÃ¾ÃĸÃ¬r":11736,"lÃ¢b":11737,"lxZÃı":11738,"muos":11739,"mÃĸDtt":11740,"mÃĲÃķ":11741,"mÃĵÃĴa":11742,"mÃ¸O":11743,"mÃİIÃºÃį":11744,"mÃķÃĭÃ¸":11745,"mÃĪpÃ¨":11746,"mOÃµÃ©":11747,"maÃĵKÂªÃ³":11748,"nuÃ¯":11749,"nÃ°k":11750,"nÃ¯w":11751,"nÃĸÃģNÃ¶sÃĶ":11752,"nYÃĲÃĥ":11753,"oÃ´ÃĬP":11754,"oÃįO":11755,"oÃ£yÃį":11756,"oÃ¹Ã®F":11757,"oWÃªÃ®":11758,"prÃ°U":11759,"pÃķÃħ":11760,"pÃ®Ã¿":11761,"pÃĳÃĽ":11762,"pÃ¿dÃ¤ÃĳÃ£":11763,"pGÃħZ":11764,"pÃıHÃĺ":11765,"pJxNÃ¢":11766,"pWAÃĴÂµÂº":11767,"pjwÂµC":11768,"qqÃĸÃ¨":11769,"qÃĥt":11770,"qÃºA":11771,"qÃĢÃĲOÃħ":11772,"qÃŁÃĺÃķ":11773,"qÃķmÃĻTZ":11774,"rÃ»I":11775,"rÃ¡Ã§Âµ":11776,"rZcÃ§D":11777,"sÃĦÃĦ":11778,"sÃīdkyjH":11779,"sÃµÃµ":11780,"sÃ¨ÂªÃ¿":11781,"sMÃİK":11782,"sQUÃĦb":11783,"sXxÃ¨HÃĻ":11784,"tukÃµÂº":11785,"tÃĮÃ°":11786,"tÃ¨G":11787,"tÃ¦ÃĮÃĬRG":11788,"tÃ±Ã®ÃĸkÃ°":11789,"tÃļÃĦ":11790,"tÃĶÃı":11791,"tÂºCÃ®":11792,"tJÃ¾A":11793,"tPÃªHÃ¿":11794,"tXÃ¦C":11795,"tnÃĭYÃ³g":11796,"uÃ»v":11797,"uÃħÃ²Ã½Ã¤":11798,"uÃ¸FHÃ¸nÃ»":11799,"uÃīÃ¾":11800,"uÃ¬rÃľ":11801,"uÃ½ÃĢÃ©":11802,"uÃĳOOÃ´":11803,"uNÃĳau":11804,"vvÃĴÃ½":11805,"vÃ¥ÃĮ":11806,"vÃĳz":11807,"vÃłÃĽw":11808,"vÃĸRÃ¸":11809,"wÃ´SlÃĨÃħÃł":11810,"wÃ³Ã½":11811,"wÃ©ÂºÃ¬yOu":11812,"wÂªpÃ®Ã¿":11813,"xÃĮuTÃ¯":11814,"xÃ¾Ã¡Ã»":11815,"xÃŀÃĽA":11816,"yÃĭDÂº":11817,"yÃĮÃķ":11818,"yÃºÃ¦":11819,"yÃĢÃ¦dX":11820,"zÃ¡Ãŀ":11821,"zÃİÃ«":11822,"zÃ²Ãŀ":11823,"zNÃ¤rkÃŃ":11824,"zÃĲÃ¦Q":11825,"{ąĆ":11826,"{ÂľĘ":11827,"{ÂĻÂ«ė&":11828,"{Âĩā":11829,"{ÂĨÂĪ/(ą":11830,"|ąÂ¿":11831,"|ĆÂ§":11832,"|Â»Âĵ":11833,"|Â®Â§Ğĕ":11834,"|Âĥ.":11835,"|ÂİĕĜ":11836,"|ďÂ¡Ĝ":11837,"|Â´ÂķÂĩ":11838,"}ĈÃĹÂĲ":11839,"}Ę/Âĥ":11840,"}Â¤Ā":11841,"}ÂĬ!Âį":11842,"}ÂĿĈ{ĈÂ¯":11843,"}Âķ-":11844,"}ÂĤÂĭ\\":11845,"}Â±Ćđ":11846,"~ĐÂ¦":11847,"~Â¿Â¤.":11848,"~Â¯Â«":11849,"~Â¥Â®":11850,"~ÂĢĎ[":11851,"Āă]":11852,"Āěē":11853,"ĀÂ¦ÂĥÂ¶Â¡":11854,"ĀÂĤÂŃ":11855,"ĀÂļĂ":11856,"Ā\"ēĖ":11857,"ĀďĈÂĿ":11858,"āÂ·ÂĹ*":11859,"āÃĹĝ":11860,"āÂŁ!ę":11861,"ā)Â¡ąÂ£":11862,"ā?ĖÂĶÂ§ąÂ«":11863,"ĂĐć:":11864,"ĂÂı#ÂŃ:Ĝ":11865,"ĂÂ¬Â®":11866,"ĂÂĩÂ«,":11867,"ĂÂĮĖ[Â©":11868,"ĂÂİ;$ĒĝÂį":11869,"ăÂ¿Âı":11870,"ăÂĳÂĪ":11871,"ăÂĬÂĲ":11872,"ĄĖ:}ÂĴ":11873,"ĄāÂĮ&Ã·Ā":11874,"ąĔ:":11875,"ąġĝ":11876,"ąÂŁ`Âĸ(ÂĴĒ":11877,"ąÂĮĈÂ¥ÂĹĐÂĴ":11878,"ąÂ®Â«ćÂ«ė":11879,"ą}Â¿=":11880,"ĆÂĢÂ¢":11881,"ĆÂĪ|":11882,"ĆÂ¶Â¿Â·":11883,"ĆÂĤÂŁ":11884,"ĆÂŁĕ&":11885,"ĆÂĺ'":11886,"ĆÂŀÂģĕ#":11887,"Ć:ÂķÂĤ":11888,"ćĖÂ¤":11889,"ćĚ%":11890,"ćÂ¡Â¸":11891,"ćÂ¸Ě":11892,"ćÃ·Â¡Â«":11893,"ĈĒÂĪ":11894,"ĈĕÂĽ":11895,"ĈĚÂ´":11896,"ĈÂ¶Ć":11897,"ĈÂ£Â§":11898,"ĈÂ¨ÂľÂĤ":11899,"ĈÂī|ĞÂ©`":11900,"Ĉ+,%ė":11901,"ĎĐÂĦ":11902,"ĎęÂĪ":11903,"ĎĞ;ė":11904,"ď[ÃĹÂĶÂ®Ā":11905,"ďÂĳÂī[Â£":11906,"ďÂĦ\\]":11907,"ĐĘÂī":11908,"ĐġÂ·Â©ÂĻÂ¦":11909,"ĐÂĥ\\Â¶":11910,"ĐÂ·Â«":11911,"ĐÂ¨\\|":11912,"Đ%ćÂ°+":11913,"đÂ¿\\":11914,"đÂĵ(":11915,"đÂıÂ®Â»":11916,"đÂĬÂ¸Âı":11917,"đÂĩÂ¤Â£":11918,"đďÂľÂįÂ¥Ė\\":11919,"ĒĖ}":11920,"ĒÂ©Â°":11921,"Ē]ÂĲ_Â§Ğ":11922,"ĒāÂ»ġ":11923,"ĒĎÂĤÂĴ_":11924,"Ē;ěÂ¨":11925,"ēĖĕ":11926,"ēÂ¡_ą":11927,"ēÂ¿Â¨ÂĬ":11928,"ēÂĩÂĴÂĥ=":11929,"ēÂķă":11930,"ē|Âľ(":11931,"ēĝĚÂĭÂĳ":11932,"ĔÂ»Â°":11933,"ĔÂľĒ;ěÂ¨":11934,"ĔÂ¶:":11935,"ĔÂĺ?":11936,"Ĕ*ÂĨāÂİ":11937,"ĔÂĤÂ°ÃĹ":11938,"Ĕ_ÂĸÂĥ>ÂĲ":11939,"ĕěĘā":11940,"ĕĝÂĪ}ęĂ":11941,"ĕÂ¡Ã·[":11942,"ĕÂŀÂĩ":11943,"ĕÂīÂ¶Ĕ":11944,"ĕąĜÂ¨ÂĻ":11945,"ĕ%ĝÂŀă":11946,"ĕĄÂĹÂĻÂĻ":11947,"ĕćēĂ":11948,"ĖÂ·Âī^":11949,"ĖÂĥ>ÂĤ":11950,"ėğÂ®?":11951,"ėÂ§Âĵ":11952,"ė{%>ă":11953,"ėĞÂ¶?":11954,"ėÂıÂ¶':":11955,"ėÂŀ(Âĵ":11956,"Ęě>":11957,"ĘÂ±Â¤":11958,"ĘÂİ@":11959,"ĘÂ´Âĩ":11960,"ĘÂ¯=Ĕ":11961,"Ę],{(Âĩ":11962,"Ę{Â©Ď":11963,"ęĜ|Â±":11964,"ęÂĻÂĩ":11965,"ęÂĵÂĮ":11966,"ęÂ¨ď":11967,"ęÂĥ)ÂŁ":11968,"ęÂ·ÃĹ":11969,"ęÂİ'ē":11970,"ęÂ¬Âı":11971,"ęÂĴÂĥāġ":11972,"ę&ÃĹÂ§":11973,"ĚĚÃĹ":11974,"ĚÂ¦!Âī":11975,"ĚÂı}ÂĲ":11976,"ĚÂ¸ĒďÂ¡":11977,"ĚÂ©Â¬ěÂļ":11978,"ěÂģā":11979,"ěÂĳ*ąę":11980,"ěÂŃÂĭ^":11981,"ě`Ĉć":11982,"ě\"Â±Âĥ":11983,"ě?ÂĵÂİ":11984,"ě'Â¸ÂĬ":11985,"ĜÂĲ@":11986,"ĜÂ¤ÂĿ":11987,"ĜÂĺÂ«":11988,"ĜÃ·ÂŃÂ¥":11989,"Ĝ%Â±Â°|":11990,"Ĝ>ÂĵđĀ":11991,"ĝÂ¡Â©ÂĩĂ":11992,"ĝÂģÂĵ":11993,"ĝąÂĲÂ¬":11994,"ĝÂ°ÂīĂĒ":11995,"ĝ<ÂĨĎ":11996,"ĞÂ¯<":11997,"ğÂ°ÂľÂģ":11998,"ğÂĴÂ©":11999,"ğ!=ÂŁďÂĻ":12000,"ğ/Â¬ē":12001,"ğ>ĕ[Âģ":12002,"ğĄ{Âĳ(":12003,"ĠÂ»Â¦ćÂ®":12004,"ĠÃĲeÃĺX":12005,"ĠÃ°ÃĻÃĨ":12006,"ĠÃ³ÃĥÃħÃ¾":12007,"ĠÂ¢<ĔÂĻ":12008,"ĠÃłi":12009,"ĠÂ«ÂĪ":12010,"ĠÂ¯Ă":12011,"ĠÃĤÃīE":12012,"ĠMUÃ£":12013,"ĠĀÂ´Ğ":12014,"Ġ\"=ÂįÃ·":12015,"ĠCÂµgÃĨ":12016,"ĠGwNÃ³a":12017,"Ġ\\@Â£Â¬":12018,"Ġ]]ÂĿ^*":12019,"ĠāÂĨ-_":12020,"Ġă@ĒÂ¿-Âį":12021,"ġÂĨÂĴ":12022,"ġÂ£ÂĲÂ°":12023,"ġÂĶÂĳ":12024,"ġÂĹÂļ":12025,"ġÂ´+Ą_Âķ":12026,"ġÂ¤{":12027,"ġÂĺ@Ď":12028,"ġ\"ĆÂĥĄ\\ą":12029,"ġ@*^Â¥":12030,"taÃĿÃ¿ÃĦ":12031,"ndammasterthatcircumstance":12032,"asofwithnotofchance":12033,"asUndercaptainunafraid":12034,"asthethenot":12035,"asItwhateverLoomsIhavethe":12036,"aswhateverclutchI":12037,"asofunconquerableshade":12038,"asFindsascriedofBeyond":12039,"ĠrÃıÃĦ":12040,"thecriedmaycaptainwhateverfrom":12041,"theFindsshade":12042,"theIofchargedthe":12043,"theamunconquerableFindsfate":12044,"thethatandam":12045,"thewraththethishowthe":12046,"thetomattersmatters":12047,"ofpolethechargedthatthatand":12048,"ofhowcaptainofForthethank":12049,"ofLoomsaloud":12050,"ofcriedofunconquerablethepunishments":12051,"ofheadHow":12052,"ofFindsthe":12053,"ofmasterwraththe":12054,"ofIthechancesoul":12055,"ofnotandthe":12056,"ofForoffate":12057,"ofwrathofmasterthis":12058,"ofHowyetwhateverBeyond":12059,"oftowrathpoleto":12060,"ofasampunishments":12061,"mecaptainaloud":12062,"mehavethankof":12063,"metearsHorrorLooms":12064,"mebepole":12065,"meHorrorthethethatstrait":12066,"mepitfindMy":12067,"meIandHowwith":12068,"ÃĤÃĻbsÃ¹":12069,"ÃĤLYÃ´A":12070,"ÃģÃĲV":12071,"ÃģÃ¢NÃ£ÃĸÃģ":12072,"ÃģxPQqÃļ":12073,"ispoleandclutchpole":12074,"isshallbutthathave":12075,"istearsofishowbut":12076,"ispitofwrathyearsstraitLooms":12077,"isOutamtheBlack":12078,"Â¡Âĸ-":12079,"Â¡ÂıÂĥ":12080,"Â¡ÂĤÂĪ":12081,"Â¡ĀÂ¤}":12082,"Â¡āÂĭ.ĝđę":12083,"ÃķÃĨK":12084,"ÃķÃ¨ÃĪN":12085,"ÃķÃ¤s":12086,"ÃķÂµÃ¬":12087,"ÃķÃĴqH":12088,"ÃķBLfÃĦ":12089,"ÃķÃĻÂªgÃĸ":12090,"ÃķÃ±IÃ©":12091,"ÃķÃīwIu":12092,"Â»ÂĻÂŃ":12093,"Â»ÂĤÂĲÂľ":12094,"Â»Â¯Âĵ":12095,"Â»Ē|Â¿ÂĬ@":12096,"Â»ÂľÂ¥ÃĹ":12097,"Â»-ÂĬ>":12098,"Â»ěÂ¡ÂĳÂ©":12099,"Â±ÂİÂĢ":12100,"Â±;ÃĹđÂıÂ®Â»":12101,"Â±|āĜ'":12102,"ÃĸÃ¶ÃĳÃįNÃ¹":12103,"ÃĸÃ±Ã§ÃĢ":12104,"ÃĸÃ®rÃĶw":12105,"Â°Â¿@":12106,"Â°ÂĪÂ·":12107,"Â°Â¯Ă,":12108,"Â°ĐĔÃĹ":12109,"Â°^Â´ĝÂ´":12110,"Â°ĀÂĶÂļ":12111,"Ã»Ã®I":12112,"Ã»Ã¥toG":12113,"Ã»Ãİv":12114,"Ã»Ã³ÂªÃ±":12115,"Ã»Âµp":12116,"Ã»ÃªÃİÃĮÃĽ":12117,"Ã»aÂºDDÃ¹":12118,"ÂºÃĨR":12119,"ÂºÃħÃĵe":12120,"ÂºÃĬM":12121,"ÂºÃ½ÂºÃº":12122,"ÂºÃľB":12123,"ÂºÃŀÃĩÃŁ":12124,"ÂºÃīsfÃĥ":12125,"ÂºÃŁmf":12126,"ÂºJQÃı":12127,"ÂºYÃ«i":12128,"Ã¡Ã¿dÃ¬":12129,"Ã¡njÃ¨":12130,"Ã¡GÃĩÃ´Ã¦Ã¹":12131,"Ã¬ÂªÃķ":12132,"Ã¬hqEÃ©Ãĭw":12133,"Ã¬nÃĺÃĿ":12134,"Ã¬cÃ»Ãļ":12135,"ÃĦÃ½Ã£q":12136,"ÃĦÃ«W":12137,"ÃĦÃ¨E":12138,"ÃĦÃ£J":12139,"ÃĦUÃĬÃĴM":12140,"ÃĦhPUÃ¿":12141,"ÃĨÃĬÃĥ":12142,"ÃĨÃªÃĽxÃĤ":12143,"ÃĲÃĬaÂª":12144,"ÃĲÃ¼Ã¡":12145,"ÃĲÃ«q":12146,"ÃĲÃ¹j":12147,"ÃĲÃĤOÃĨ":12148,"ÃĲuÃĢÃĭ":12149,"Â¿Â®Â¯":12150,"Â¿ÂĹÃĹ":12151,"Â¿%(-":12152,"Â¿/Â¬Â¡":12153,"Â¿\"ÂķÂ¯ÂŃ":12154,"Â¿ĖÃ·.ą":12155,"Ã°Ã¸ÃĢÃ¸":12156,"Ã°ÃłD":12157,"Ã°Ã¯UÃĺ":12158,"ÂĸÂ¦#;_":12159,"ÂĸÂĶÃ·ā":12160,"ÂĸÂ·Âı,ÂŁ/":12161,"ÂĸÂļÂ¿":12162,"ÂĸÂķēÂ£":12163,"Âĸ/ÂĽÂĺ":12164,"ÂĢÂĻď>ĄÂ¿":12165,"ÂĢÂ´Â©":12166,"ÂĢÂĺ!":12167,"ÂĢÂĿĂ":12168,"ÂĢÂŀÂģÂ¢":12169,"ÂĢ=ÂĭÂŃ":12170,"ÂĪÂĶÂľ":12171,"ÂĪÂķ\"Â¯+":12172,"ÂĪÂĲÂĩÂ¥ÂĢ":12173,"ÂĪÃ·Â¡Âİ":12174,"ÂĪ%Â¡[":12175,"ÃĵÃĬp":12176,"ÃĵÃİo":12177,"ÃĵÃ§k":12178,"ÃĵÃįRÃ³w":12179,"ÃĵÃ²ÃĮ":12180,"ÃĵCÃļOm":12181,"ÂĴÂ£Ě":12182,"ÂĴÂ¬/ġÂŀ":12183,"ÂĴÂŁē":12184,"ÂĴÂ¸Ĝ+Âĭ":12185,"ÂĴÂ°ÂĵēÂĩÂĴÂĥ=":12186,"ÂĴ(ÂĲÂī":12187,"ÂĴ\\ÂĥęÂĴÂĥāġ":12188,"Âľ,đ,Ĉ=":12189,"ÂľÂ»ğÂĪÂĮ:ÂĨ":12190,"Ã®ÃĩÃ¡Ã¯ko":12191,"Ã®Ã«Ã§j":12192,"Ã®ÃľÃĺ":12193,"Ã®Ã¤Ã¼":12194,"Ã®Ã®Wy":12195,"Ã®bÃĶd":12196,"Ã®izWÃķ":12197,"Ã®ÃĵÃħyL":12198,"Ã¯Ã´Ã§":12199,"Ã¯ÃĶÃ¤":12200,"Ã¯ÃĴÃŃ":12201,"Ã¯AÃŀx":12202,"ÃħÃ´B":12203,"ÃħÃĮÃ¹Ã®Ãį":12204,"ÃħÃĳWOÃİ":12205,"ÃħÃļÃ¬ÃŁ":12206,"ÃħÃķÃĮÃ¤MÃ¡":12207,"ÃħÃ¡ÃºW":12208,"ÃħCVÃĿx":12209,"ÃĬÃ½pÃ¿dÃ¤ÃĳÃ£":12210,"ÃĬÃĻW":12211,"ÃĬÃ¶ÃŁÂµÃ¾Ã£":12212,"ÃĬYÃĥÃĺÃŀ":12213,"ÃĺÃĺwÃĢ":12214,"ÃĺÃ³o":12215,"ÃĺÃ¸ÃµÃ´Ãħ":12216,"ÃĺÃ¦Ãį":12217,"ÃĺÃµRÃįo":12218,"ÃĺÃ¬Ã½Ã°Ãıi":12219,"ÃĺÃ¯Ã³rÃļs":12220,"ÂģÂİ)":12221,"Âģ}Â£:ÂĮÂ·":12222,"Âģ,]^Ę":12223,"Âģ]Ēēė":12224,"ÂģÂ»ÂģÂ¿(":12225,"ÂĽÂĥÂĹÂĢ":12226,"ÂĽ&ÃĹĒ":12227,"ÂĽ(_Ď*":12228,"ÂĽ|ĔÂļÂıĈ":12229,"ÂĽāĚÂĨ":12230,"ÂĽÂĲĚÂ¬":12231,"Ã´Ãły":12232,"Ã´ÃįÃĸ":12233,"Ã´ÃĴLÃĮ":12234,"Ã´ÃªÃĽÃ£":12235,"ÃĥÃ±Ã°":12236,"ÃĥÃīÃģ":12237,"ÃĥÃ¤z":12238,"ÃĥÃ½ÃĪpÃĸ":12239,"ÃĥYÃīfg":12240,"Â®ÂĻą":12241,"Â®Â¬&Â¤ĜÂĩ":12242,"Â®ĀÂ¶^ēÂĳÂİ":12243,"Â®ĄÂ¶Ă":12244,"Â®ĕÂĳ*":12245,"Â®ÂģĆÂĻ<":12246,"Â¶ÃĹÂ£":12247,"Â¶Âĺ\"Âŀ]":12248,"Â¶ęÂĬÂ¿%(-":12249,"Â¶Â±<Ă":12250,"Â¶Ã·ā[Ĝ":12251,"Â¶!ÂĮ#Â©<ġ":12252,"Â¶Đ:ĞÂī":12253,"Â¶ĖÂĤ-":12254,"ÂĨÂķ$ÂĹ":12255,"ÂĨ$ÂĽ~":12256,"ÂĨĆğĝ":12257,"ÂĨĜ<~ÂĮÂĶ":12258,"ÂĭÂīÂŁ:":12259,"Âĭ>ÂĶÂ°":12260,"Âĭ'ěÂĶÂŁ|>":12261,"Â£ĆÂģ+@":12262,"Â¸ÂĻ'":12263,"Â¸ÂĥÂŀÂį":12264,"Â¸!ÂĩğĞ":12265,"ÂĻÂ¬=`ē":12266,"ÂĻÂĦ<":12267,"ÂĻÂĿÂŁÂķ":12268,"ÂĻÂĮ(Â¡":12269,"ÂĻ/ÂĭÂ¸ď":12270,"ÂĻ`Â£Â¦":12271,"ÂĻĒÂı\\":12272,"ÂĻÂ¡Â¤ÂŃ":12273,"Ã½ÃįÃ«":12274,"Ã½DZrÃł":12275,"Ã½GyÃªÃĪÃĦpt":12276,"ÃĩÃİÃ§Ã¥Ã²R":12277,"ÃĩÃĻÃ¸w":12278,"ÃĩÃ¹Ãµ":12279,"ÃĩÃĪC":12280,"ÃĩÃ©N":12281,"ÃĩwÃ¥Ã´uÃ¶Ãº":12282,"Â¦Â·ÂĽ":12283,"Â¦Âīė":12284,"Â¦Â´[":12285,"ÂĲÂıĝ":12286,"ÂĲ@)=":12287,"ÂĲ!ęÂ©Â¢":12288,"ÂĲđÂĽÂ»":12289,"ÂĲÂ»ÂīÂĩ":12290,"ÂĵÂĳÂ±":12291,"ÂĵÂīÂĿ,":12292,"ÂĵėĂğ":12293,"Âĵ.ă<Â±ĐĖÂİ":12294,"Âĵĕ@}Â©":12295,"ÃªÃĿÃĦ":12296,"ÃªÃļfx":12297,"ÃªvsQ":12298,"ÃªThÃĲ":12299,"ÃªEJÃı":12300,"ÃªQÃĺd":12301,"ÃªjÂªÃĢ":12302,"Ã·ÂĥÂ¯ÂĤ":12303,"Ã·ć<ĚĄ":12304,"Ã·!Â¦ĝ":12305,"Ã·#đÂ©Âŀ":12306,"Ã·>ĘĈĎ":12307,"Ã·ÂĲ>ÂļÂ¸ÂĴÂ®":12308,"Ã¼Ã¥ÃĦ":12309,"Ã¼Ã¨LÃİX":12310,"Ã¼Ã±qÃĢÃĲOÃħ":12311,"Ã¼RyÃħ":12312,"Ã¼nÃįP":12313,"Ã¼bOJV":12314,"Ã¼Ã½ÃĮÃĽÃ«":12315,"ÃĭÃıÃ¨":12316,"ÃĭÃĳÃĭ":12317,"ÃĭÃ¨Y":12318,"ÃĭÃ¶WÃ½P":12319,"ÃĭWÃ½l":12320,"ÃĭÃ¿ÃĶbgÃ²":12321,"ÃĭXÃļÃ¨Ã¡aÃª":12322,"ÃĮÃĪX":12323,"ÃĮÃ§Ã±Ã±":12324,"ÃĮÃīÃ©V":12325,"ÃĮÃļÃĻ":12326,"ÃĮÃ£Ã¥sÃ¾":12327,"ÃĮÃ«AÃ¬":12328,"ÃĮÃ¾SV":12329,"ÂıÃĹē":12330,"ÂıÂĬ-":12331,"ÂıÂļÂŁ\\":12332,"Ã«ÃĢr":12333,"Ã«ÂµOÃ©":12334,"Ã«Ã¹Ã«ÃļÃķÃ¶":12335,"Ã«Ã²pcÃ¡":12336,"ÃºÃĿÃ¸Ã¯":12337,"ÃºÃ¿y":12338,"ÃºPÃĿF":12339,"ÃºJÃĺÃ§OF":12340,"ÃºÃ¡MÃĴÃıÃ«l":12341,"Â¨Â¯ÂĿ":12342,"Â¨ÂľÂ´ě":12343,"Â©Â§!>":12344,"Â©;ÂĦÂİÂ¡":12345,"Â©>_Ė;ÂŀÂ´Âİ#":12346,"Â©ÂĢ:Ěĕ:Â¤":12347,"ÂĥÂ¢)":12348,"ÂĥÂĿ]{":12349,"ÂĥÂŃÂĵ":12350,"Âĥ${ÂĸÂ¨":12351,"Âĥ/ÂĪÂ£":12352,"ÂĳÂ§Âŀ":12353,"ÂĳÂİĂ":12354,"ÂĳÂĺÂĸÂļÂ¿":12355,"ÂĳÂĿ]Â£[.Âī":12356,"ÂĳăĜĚ":12357,"ÂĶÂ©ďÂĿ":12358,"ÂĶ/~Â«":12359,"ÂĶ;Â°Â£":12360,"ÂĶÂ¦Â§$ÂŃ":12361,"ÂŀÂ«Â¤":12362,"ÂŀÂĿĚ":12363,"ÂŀÂķÂĳÂ§Âŀ":12364,"ÂŀĔē]":12365,"Ã¥Ã¹Ãģ":12366,"Ã¥ÃµÃ²":12367,"Ã¥Ã°twg":12368,"Ã¥ÃĤÃ°Ã©":12369,"Ã¥Ã´ÃĶÃº":12370,"ÃİÃĢÃ½Ã«":12371,"ÃİÃ¹W":12372,"ÃİÃıÃ²Ã¬Ã¥":12373,"ÃİiÃ´Ãİ":12374,"ÃľÃĨÃ¨ÃĤ":12375,"ÃľLÃ¬Ãīw":12376,"ÃľMÃļÃı":12377,"ÃŃÃĻt":12378,"ÃŃÃıRk":12379,"Â§ÂİÂ¥%ę":12380,"Â§Â¥Âĺ":12381,"Â§-ÂŁĂ-":12382,"Â·ÂĿÂķēăÂ»":12383,"Â·Â§ÂĬĂ>Â¶":12384,"ÂİÂ¢/ÂĽ":12385,"Âİ{Ēā":12386,"ÂİĀÂ¤[ÃĹ":12387,"Âİ=Â·Âģ":12388,"Ã¾ÃĻÃ»":12389,"Ã¾IÃµÃ¾Ã¿":12390,"Ã¾Ã´ZrÃį":12391,"ÃĻÃ¶ÂªÃ¨":12392,"ÃĻÃ£ÃĶZ":12393,"ÃĻÃıÃ²k":12394,"ÃĻÃĿvÃĭhÃ©Ã³ÃĺÃª":12395,"ÃĻXKUMÃķO":12396,"ÃĻÃľHCÃ¸":12397,"ÃŀÃ©Ã®ÃĩÃ¡Ã¯ko":12398,"ÃŀÃŁKÃĨ":12399,"ÃŀHÃ±ÃĨrKB":12400,"ÃŀPÃĭÃļ":12401,"ÃŀbyOJo":12402,"ÂīĎÂĤ*":12403,"ÂīÂĢÂ¤Â¥":12404,"Âī]ÂĨĔÂ¸Âķ":12405,"ÃıÃ¤Ãľ":12406,"ÃıÃĽRÃ¯ÃĻÃ¼YÃ§":12407,"ÃıAÃĲÃĤ":12408,"ÃıdlÃķl":12409,"ÃĳÃĪÃĶT":12410,"ÃĳÃłÃ¼":12411,"ÃĳÃ¡ÂµE":12412,"ÃĳÃ´Ã¦Ã£Ãı":12413,"ÃĳeÃĲfÃ¢":12414,"Ã¨Ã³Ã¢Ã®":12415,"Ã¨ÃĢZV":12416,"Ã¨qrwO":12417,"Ã¨XÃĤJ":12418,"Ã³Âµy":12419,"Ã³Iyy":12420,"Ã³eÃ²OÃĩ":12421,"Ã¸Ã¤ÃķÃ¹":12422,"Ã¸ÂµÂªÃ¬":12423,"Ã¸nÃ±ÃĶ":12424,"Ã¸bpH":12425,"Ã¸ÃħÃ¥HÃĬWX":12426,"ÃĢÃ©m":12427,"ÃĢKÃ¨Ã¼":12428,"ÃĢLÃ¬H":12429,"ÃĢRÃĪÃº":12430,"ÃĢgwÃĸÃĢ":12431,"ÃĢÃ®Ã±J":12432,"ÃĢÃİÃĿÃĥÃīÃģ":12433,"Â¢*ĖÂ©":12434,"Â¢ÂĲĚ]{ÂľÂĿ":12435,"Â¢ÂĬ|Âį":12436,"Â¢ÂľÂ¿ÂļÂľ":12437,"Â¬ĀÂ´Â¶":12438,"Â¬ĂÂ±Â£Ąć":12439,"Â¬ėÂ¢ÂĺĈ%":12440,"Â¬ĜÂ«Â®<":12441,"Â¬Ã·ÂİÂĬ":12442,"Â¬ÂİÂ¯Â¨":12443,"Ã¦ÃĶÃ¢":12444,"Ã¦ÃĤÃīc":12445,"Ã¦ÃŀÃľÃ¤Ã®":12446,"Ã¦OBUE":12447,"Ã¦ÃģÃ£Ãµ":12448,"Ã¦ÃĽoÃ«RD":12449,"Ã¦VÃ±Ã¡":12450,"Ã¦mPÃĢJÃĳu":12451,"Ã¦ÃģNÃĲÃīo":12452,"Ã¶ÃļvvÃĴÃ½":12453,"Ã¶Ã®ÃºÃ´":12454,"Ã¶ApH":12455,"Ã¶ReÃī":12456,"Ã¹Ã¹GW":12457,"Ã¹Ã©iUÂº":12458,"Ã¹oyÃĽÃ®":12459,"ÃĹÂĵĄÂ¬ĕ":12460,"ÃĹĀÃ·ė":12461,"ÃĹ;ÂĦ\\&":12462,"Ã±YmÃĬÃ¯":12463,"Ã±ÃģÃĮHB":12464,"Ã±Ã³TÃĶÃķÃĴqH":12465,"ÃĪNswj":12466,"ÃĪmNOÃªQÃĺd":12467,"ÃĪuvxr":12468,"ÃĪÃ»Ã¶K":12469,"ÃłÃłÃ¦H":12470,"ÃłÃĿÃĮÃĶ":12471,"ÃłgAÃľÃ°rÃĳ":12472,"ÂĤÂĺ+Â©Â¸":12473,"ÂĤĘĐÂ¸?":12474,"Âĩ>ÂĽĔÂ»Â°":12475,"Âĩđġ/":12476,"ÂĹÂ«ć":12477,"ÂĹ~ĞÂīďÂ£ÃĹ":12478,"Ã§lÃ§tÃĶÃı":12479,"Ã§lÃłÃ¢":12480,"Ã§vÃİÃĨ":12481,"Ã©Ã¤ÃĮ":12482,"Ã©ÂµÃģsÃŃ":12483,"Ã©ÃĴÃķ":12484,"Ã©Ã±ÃĽÃĮ":12485,"ÃīnvH":12486,"ÃīEÃŁÃ¾":12487,"ÃīQÃĬPÃ¤":12488,"ÃīVÃ»Ã¤Âªw":12489,"ÃīÃĢcnÃģÃĲ":12490,"ÃĿqgÃı":12491,"ÃĿÃĿUÃĤ":12492,"ÃĿoÃĲÃĿ":12493,"mymyandofchancesoul":12494,"mycoversasthetearsthenor":12495,"myIttheBlackmepunishmentsAnd":12496,"myIIbe":12497,"mychancetheBeyondHorror":12498,"myImygate":12499,"myofchargedtheInmatters":12500,"mytearsplaceshade":12501,"Ã¤ÃķÃľZÃ°Ãŀp":12502,"ÃļÂªa":12503,"ÃļÃ¢U":12504,"ÃļlÃ¥L":12505,"ÃįÂµr":12506,"ÃįÃ²Ã¯":12507,"ÃįIyÃĳ":12508,"ÃįIÃµÃĴWÃµ":12509,"ÃįAÂªj":12510,"ÃĶÃ¿SÂª":12511,"ÃĶÃ¸CÃĶ":12512,"ÃĶCÃĲFÃ¾Ã®":12513,"ÃĶIÂºe":12514,"Â´ÂĮÂİ":12515,"Â´ĂĚď":12516,"ÂµÃ²g":12517,"ÂµÃĽÃĴ":12518,"ÂµFÃĭr":12519,"ÂŁÂĿÂ¸,":12520,"ÂŁćÂ¨Ą":12521,"ÃµjÃ¡Ã»ÃĪM":12522,"ÃµÂªÃŃbF":12523,"ÃµMpÃłÃĥÂµ":12524,"ÃµÃ¬Ã¼Ã£ÃĶ":12525,"Â¤Â¯ÂĮ>":12526,"Â¤>ăĝĆ":12527,"Â¤Â®Â£ÂŃ":12528,"ÂªÃĴRÃ¬":12529,"ÂªÃ£Ãĺ":12530,"ÂªIOcj":12531,"ÂªUÃĸgÃĶ":12532,"ÂªfÃłKÃ¡e":12533,"ÂªÃļgÃĢÃĢÂºÃł":12534,"Ã²ÃĤIÃ¾ÃµÃīÃ²":12535,"Ã²ZoÃ¶b":12536,"Ã²okÃ®U":12537,"Ã²ÃĲÃģÃ¹ÃĮ":12538,"Ã²Ã®gÃ¤ÃĦÃµ":12539,"Ã²Ã¹ÃĺmÃ³Ã¸ÃĴ":12540,"ÂĬĚĎÂ°ě":12541,"ÂĬÂĪęğÂĸ":12542,"ÂįÂ¥*Â§":12543,"ÂįÂķÂ«Â»":12544,"ÂįÂĳÂ¯ÂŁ)ÃĹ":12545,"Âį)_Â¬ā":12546,"Âį^ÂĲÂĸ":12547,"ÂįÂıÂĹÂ§":12548,"ÂįĖÂ«ĒāÂ»ġ":12549,"ÂįÂ°ĈÂ»ē":12550,"ÂįÂ¢;Ě[":12551,"ÂļÂķ@":12552,"ÃĽÂºSr":12553,"ÃĽÃĳLÃĥÃ§j":12554,"ÃĽjÃ§ÃĻ":12555,"Ã¢pÃĸÃ¸":12556,"ÃĴÃ£Ã±Ã´":12557,"ÃĴXÃ¸b":12558,"ÃĴcÃīÃ°":12559,"ÃĴwÃģB":12560,"ÃĴÃĵÃĮÃĽÃ¼Ã½ÃĮÃĽÃ«":12561,"ÃĴÃµXÃģe":12562,"Â¯ÂĺÂĥėÂİ":12563,"Â¯Â»ÂĮ]":12564,"Â¯'ÂĮÂ»":12565,"Ã¿BÃĮÃ¤":12566,"Ã¿ÃĬÃ¾lv":12567,"Â¥[ÃĹÂ¿+/":12568,"Â¥>ÂĢÂĭÂ©":12569,"Âĺ]ÂĲÂĿ":12570,"ÂĺÂ¬&]":12571,"Âĺ@Â¬!":12572,"Âĺ}#?{":12573,"Âĺā@ÂĦÂ¶\\":12574,"Ã£ÃĨÃ¨Ãŀ":12575,"Ã£ÃĮÃµÃ°":12576,"Ã£wÃ¤C":12577,"ÃŁOmbÃĦ":12578,"ÃŁÃ¾ÃİÃĭ":12579,"ÃŁÃĤÃļÃĺ":12580,"ÃŁÃĿÃ«ÃĩÃĻÃ¸w":12581,"ÂĿÂŃÂĻÂĸÂ¡":12582,"ÂĿ(_ÂĢÂ´Â©":12583,"ÂĿÂĳĈÂĪěÂ¦":12584,"ÂĮĆć&":12585,"yearshave":12586,"yeÃĭRÃł":12587,"ÂķÂ»ÂĨăÂ¡":12588,"ÂŃÂĿÂĮÂŁ/ď":12589,"poleamthatnotmaythe":12590,"polehowfromfindunafraid":12591,"polenightsoul":12592,"notcoversfate":12593,"notofthemyfindwhatevercaptain":12594,"notBeyondIBeyondcried":12595,"notcircumstanceunafraid":12596,"notbecircumstanceandhaveof":12597,"notgodsmywithcircumstancetheof":12598,"notmasterUnderMy":12599,"notofofbludgeoningsUnder":12600,"notmeofamofnorI":12601,"notofchargedofthealoud":12602,"notmyItheplaceasyears":12603,"nothowInotstraitFortheof":12604,"ammenacethenormypole":12605,"amwrathchargednight":12606,"amofBeyondUnderamfind":12607,"amForthechargedHow":12608,"ampolefindpunishments":12609,"amwraththethistheandandof":12610,"andthetheOut":12611,"andoftheasfate":12612,"andthankInnotyet":12613,"andAndmeofcircumstance":12614,"andwraththatwith":12615,"andshallofand":12616,"andIthowcaptainnight":12617,"andthankthewithFor":12618,"andmymattersIofcircumstance":12619,"andpunishmentsnorgate":12620,"andtheBeyondmystraitclutchI":12621,"andnotForbetearsfrom":12622,"butmatterspunishmentsBeyondofunafraid":12623,"butcoversme":12624,"butwrathfate":12625,"butItfellunafraid":12626,"butOutpunishments":12627,"butpitofof":12628,"butAndmyhow":12629,"butHowIofcircumstancethe":12630,"buttobutthisthethegate":12631,"butIInpitbutfrom":12632,"Understraitthebloody":12633,"UnderOutofandthatIt":12634,"Underwhateverfellthe":12635,"Underthisthesoul":12636,"Undertheofamofandhave":12637,"Underamthechance":12638,"Underwithofpunishments":12639,"Underbutamwhateveraloud":12640,"fellyearsmatterschanceand":12641,"fellMymyofchargedtheInmatters":12642,"fellHowwincedthefell":12643,"fellunconquerablefellbludgeonings":12644,"fellUnderLoomspitthe":12645,"felltonotofthe":12646,"captainMycriedisand":12647,"captainheadthesoul":12648,"captainbutaloud":12649,"captainthewrathhowLoomscried":12650,"captainAndmystraitthank":12651,"captaincriedtheamofwhateverLooms":12652,"captainmyLoomsmywinced":12653,"captainthatheadmayOutmay":12654,"thatmattersshallclutch":12655,"thatthankyearsfromnight":12656,"thatAndfellmatterspole":12657,"thatshallfate":12658,"thatyetmaster":12659,"thatbecaptainmyLoomsmywinced":12660,"thatBlackbutItfellunafraid":12661,"thatIthesoul":12662,"thatnottheascovers":12663,"thatcriedmyfrompit":12664,"thatwhateverwithI":12665,"howmayshallsoul":12666,"howtearsAndclutch":12667,"howclutchthetheIt":12668,"howOutwithscroll":12669,"howwincednotunafraid":12670,"howoffromcaptainunbowed":12671,"howpitheadtheofIwhatever":12672,"findthisamthis":12673,"findIthehow":12674,"findwraththecaptain":12675,"findtheisMytheIn":12676,"findthefellfate":12677,"findtheForisII":12678,"findnorIthetheme":12679,"straitmayhead":12680,"straitBeyondthewith":12681,"straitMychanceI":12682,"straitthisaswhateverclutchI":12683,"straittheIbloody":12684,"straitthehowofme":12685,"straitclutchIgodsIscroll":12686,"straitHorrorofAnd":12687,"straitnotwithOutamyet":12688,"straitUnderIII":12689,"chancepunishmentsofand":12690,"chancechargedForthethisfate":12691,"chancemaybutandtheMy":12692,"chanceyetsoul":12693,"chanceInBeyondIof":12694,"chancethankhavewinced":12695,"chanceheadgodsLoomsLooms":12696,"matterswiththefind":12697,"mattershavetowithpo":12698,"mattersbludgeoningsisOutamtheBlack":12699,"matterswhateverto":12700,"mattersFindssoul":12701,"matterscoverstheas":12702,"thetheoftheshade":12703,"thetheBlackpoleI":12704,"thethefellwincedcircumstancepole":12705,"thethefindfrommybut":12706,"coversthankscroll":12707,"coversyearsme":12708,"coversBeyondthenot":12709,"coverscircumstanceunbowed":12710,"coversnightbludgeoningsgate":12711,"coversheadthenot":12712,"coversIthegate":12713,"coversIIfellpole":12714,"coversofthethetheclutch":12715,"coversIHowUnderI":12716,"coversthethemasternotmyme":12717,"punishmentswithsoul":12718,"punishmentsnightam":12719,"punishmentsOutBlackyetgods":12720,"punishmentsbeof":12721,"punishmentsthenorUnderhow":12722,"punishmentsbludgeoningsthis":12723,"ForHowclutchofunafraid":12724,"ForwincedstraitBeyondthewith":12725,"Forofofgodstearsof":12726,"Formywithbutcaptain":12727,"ForUnderofItcriedthe":12728,"Forthatnightthispole":12729,"withwiththeyetnorhead":12730,"withnortheyet":12731,"withwhateverchancethescroll":12732,"withtobludgeoningsthankbut":12733,"withwincedmaynotcharged":12734,"withtheofunafraid":12735,"withthemyunbowed":12736,"dgSÃĨÃĥÃīÃĦKÃ¹":12737,"frommaytearspit":12738,"frombeIUnderhave":12739,"fromgodsshallscroll":12740,"fromunconquerablethemy":12741,"fromnotstraitOutIgate":12742,"fromnotyetofsoul":12743,"ofthethankyearshave":12744,"oftheplaceandnightsoul":12745,"ofthethisfellunconquerablefellbludgeonings":12746,"thankcircumstanceLoomstheOut":12747,"thankOutAndgate":12748,"thankwhateverHowyetthethewinced":12749,"thankthisnorBeyond":12750,"thankFindsmattersBlackmattersmay":12751,"thankofisFinds":12752,"thankofclutchoffind":12753,"thankmygodsUnder":12754,"thankishaveMyfromofI":12755,"menaceplacehavehowAnd":12756,"menacetearsAndchanceclutchthecharged":12757,"menaceasthethankthenorBeyond":12758,"menacethisIfellUnderLoomspitthe":12759,"menacefellcircumstancethethemy":12760,"chargedyetbethe":12761,"chargedMyofchancescroll":12762,"chargedtheIwithscroll":12763,"chargedstraitofIt":12764,"chargedUndertheplaceAndOut":12765,"chargedmenacetearsmebutAndmyhow":12766,"Loomsyetfindfindof":12767,"Loomstearscoversofthethetheclutch":12768,"LoomsgodsIhow":12769,"LoomstheItMy":12770,"Loomsbutfindis":12771,"Loomsastearsbludgeoningschargedhowhead":12772,"LoomsiswithofAnd":12773,"yearsOutI":12774,"yearsthemenaceyetthecaptainunbowed":12775,"yearstearstheheadthe":12776,"yearsLoomsnorhavepunishmentsFinds":12777,"AndcircumstancemasterFindsof":12778,"maybludgeoningstheyearspole":12779,"mayofbutthecircumstancetheUnder":12780,"maynotamhowOutwithscroll":12781,"maytofindpole":12782,"maymynotMymattersthethe":12783,"mayForhaveofthank":12784,"BeyondForthestraitBlackIn":12785,"wrathHowtearsnight":12786,"wrathtomyItheFinds":12787,"wrathstraitplacebludgeoningsofnot":12788,"wrathfellgodsmayHorrorthe":12789,"wrathstraitmywincedtheshade":12790,"haveclutchthethechance":12791,"havegodschargedofaloud":12792,"haveunconquerableshallis":12793,"havetoBeyondMy":12794,"haveamHowyearsthe":12795,"havebutchancebloody":12796,"raitasplacemethe":12797,"shallInunafraid":12798,"shallHownotstrait":12799,"shallofcaptainBlackBeyondthe":12800,"shallmymattersthankgate":12801,"shallclutchIsoul":12802,"shallyearswrathIn":12803,"shallmaycoversplacecoversBeyondthenot":12804,"bludgeoningsplacebloody":12805,"bludgeoningsItheadscroll":12806,"bludgeoningsmenacewincedyetbut":12807,"bludgeoningsBeyondbutForcriedwraththe":12808,"circumstancenornotthe":12809,"circumstanceastheme":12810,"norcriedcriedshade":12811,"norwincedamwrathchargednight":12812,"northethankmetearsHorrorLooms":12813,"northeplaceam":12814,"noroftheIthankthecharged":12815,"norambutmenaceand":12816,"Itmaythepitthecoversbloody":12817,"Ittheheadthefromthemy":12818,"ItbuthavethebludgeoningsItheadscroll":12819,"ItfellIttheyetBlack":12820,"ItmenacecoversmenaceBeyond":12821,"Itchargedbefromfellme":12822,"yetyetfromof":12823,"yetIttheyetpole":12824,"MycaptaintheAndFinds":12825,"MyZÃĵÃ§o":12826,"Mybuthaveyearsthewhatever":12827,"placebeamof":12828,"placegodsthesoul":12829,"placemyBlackthat":12830,"placeForwrathyearsyetscroll":12831,"placemeMygate":12832,"placeamhaveHorror":12833,"placebludgeoningsamcircumstancescroll":12834,"tearsHowAndcharged":12835,"tearspunishmentsIhownorofhave":12836,"tearsBeyondofpoleasfell":12837,"clutchIncaptainnotme":12838,"clutchFindsunconquerable":12839,"clutchIIofthefrom":12840,"clutchoffindOutmay":12841,"clutchbludgeoningsbutmayis":12842,"InInshallUnderLooms":12843,"Inheadhave":12844,"InFindsandBlack":12845,"InofhaveyearsOutI":12846,"Inthenightthestrait":12847,"Intheheadme":12848,"Inchancecoversmay":12849,"InAndgodsfate":12850,"Outcriedstrait":12851,"Outtocriedyetfate":12852,"Outtheofmy":12853,"Outwraththeamthe":12854,"OutthisIshallclutchIsoul":12855,"OutofthatthewrathInbe":12856,"Outgodscoversthethepunishments":12857,"Outnightandmythe":12858,"criedgodscaptainthegods":12859,"criedIchancetearstheunbowed":12860,"criedshallmasterasthe":12861,"criedIncircumstancemyunconquerablebe":12862,"nightHowpunishments":12863,"nightgodspunishmentsBeyond":12864,"nightFindsbludgeonings":12865,"nightthenotmecoversIthealoud":12866,"nighttheisIandchanceshall":12867,"nightmetheamfrom":12868,"nightIMyofbutmethemaster":12869,"nightofthatgate":12870,"nightistoForthe":12871,"HowthetoMymenacebethe":12872,"HowbludgeoningsUnderwhatever":12873,"Howmychancecaptain":12874,"HowandplaceofshallHowasthe":12875,"bethepolethenotLoomsnotis":12876,"whatevertheofbludgeoningspunishmentsisBeyondthe":12877,"whatevertheHowcriedofthemecharged":12878,"whateverofstraitasplacemethe":12879,"whateverplacewincedbutfindhowI":12880,"whatevernightUndernotwincedpunishmentsthe":12881,"Blackofoffate":12882,"BlackofhaveofOutmy":12883,"BlackcoversmycaptainofUnderHow":12884,"Blackbefellmattersasmaythe":12885,"thisofIMycaptaintheAndFinds":12886,"thisthehowmastertheIt":12887,"thisofmayyearsmaster":12888,"thismystraitthat":12889,"headhavepunishmentsfindthisamthis":12890,"FindspoleForFinds":12891,"FindsheadclutchtheHowsoul":12892,"toandpolefindBeyond":12893,"toForchargedofme":12894,"toBeyondFindsmyIIbe":12895,"Horrorandofscroll":12896,"HorrorchanceofgodstheOutmaymaster":12897,"Horrorbutnorcircumstance":12898,"HorrorcaptainHorrorofunbowed":12899,"HorrorcircumstanceMypitmatterscoverstheas":12900,"pithowofandMyBeyond":12901,"pitAndfromhavebe":12902,"masterclutchpolecaptainheadthesoul":12903,"mastertheamthenight":12904,"masterbutbutamnightFindsbludgeonings":12905,"masterInHowcharged":12906,"wincedbutcircumstancealoud":12907,"wincedthatmybutmenacethetheunafraid":12908,"wincedtoMythemenacetheI":12909,"ofofmythemattersmenacechargedwith":12910,"Itheclutchbefate":12911,"themybebludgeoningsheadpoleBlackcaptain":12912,"thepolethefellInyears":12913,"thenotofnotfellscroll":12914,"wraththenotandaloud":12915,"wraththethankLoomscaptainofBlack":12916,"ofcaptainAndmattersInsoul":12917,"ofBeyondpolethethechargedtostrait":12918,"ofBeyondchancecircumstanceclutchyearsIn":12919,"FortheFindsofthecharged":12920,"theImattersthanknotunbowed":12921,"theisofthankhead":12922,"theismymattersscroll":12923,"thehowBlackInthethe":12924,"thepunishmentsofbutmestraitthe":12925,"thepunishmentsForpitmastermyis":12926,"howthewithmayBeyondmaypit":12927,"withofbutcriedthank":12928,"ofthankofisyet":12929,"ofshallmymattersmaythe":12930,"ofshallammymyfindaloud":12931,"headtheMypunishmentsnightAndBeyond":12932,"qPcÃ¸E":12933,"ugwÃĮP":12934,"ĕ#Âĥ,Âĥ":12935,"theUnderthethankmy":12936,"thefindofasInMy":12937,"thefindfellnightofbloody":12938,"theForstraithaveIthe":12939,"theForchargedmypitunconquerableunafraid":12940,"ofmyasfellBlack":12941,"offromItunconquerableissoul":12942,"ÂīÂŁÂ°ÂķĈęĂ":12943,"Andmyofofthethiscriednot":12944,"Andmyamtheasamcaptain":12945,"circumstanceandthatwrathLoomsfate":12946,")Â¸Ė{%:Âİ":12947,"GÃħJtÃľÃ²ÃĲÃģÃ¹ÃĮ":12948,"HBÃĤÃĥÃ¡":12949,"JÃķNÃĢoYKÃİ":12950,"KÂªJSÃĮm":12951,"SXÃĨÃĩÃ§b":12952,"WMÃ¿BYCÃ¯W":12953,"WÃĩnÃ»Ãĭ":12954,"ZÃªEÃĭÃ¹":12955,"aÃªLÃĮÃ¸":12956,"pitasthatAndfellmatterspole":12957,"qÃ«Ã¼yuÃ¡":12958,"yÃłkmÃ´Ã«":12959,"theandwithandammasterthatcircumstance":12960,"thewiththehavecaptain":12961,"theyearsfromamthisthat":12962,"theplaceheadthatfindtheofcircumstance":12963,"thebefindofbludgeoningsbutyet":12964,"theunconquerablenotmattersheadofmyFinds":12965,"ofchancethepoleIwrathnot":12966,"ofunconquerableyearsamofthehave":12967,"ÂºÃºÃĦbfÃĩÃŀ":12968,"ÃĵÃĵÂªÃıÃĭ":12969,"ÃĺÃķÃĨÃ¼pU":12970,"ÂĽÂĪÂıÂīÂģ":12971,"Ã´Ã¦Ã¼wÃ½ÃĿ":12972,"Â®Â«}ě->":12973,"ÂĳÂ¯Â¥;Ĕ-Â¶ÂĬĔ":12974,"ÂĶÂ§!ÂįÂĥ":12975,"Ã¥ÃĨhÃ¤Ã¨ÃĿ":12976,"ÂİÂĺ@ēąÂĽ":12977,"ÃĳÃ¶ÃĻÃļÃŃ":12978,"myfellcaptaintheyetIunbowed":12979,"ÂĦÂ¶#ÂĦÂĳ":12980,"amunconquerableamfindtheof":12981,"butnotFindscaptainBeyondpitof":12982,"findfindandyettheIn":12983,"punishmentsnoroftheshallwith":12984,"Ithistheamsoul":12985,"tearsmeasBlackstrait":12986,"tearsplacepolecriedOutcaptainthat":12987,"%ěÂĴÂ±Â¸ÂĽ":12988,")#,:ÂİÂĲ":12989,")ÂĻÂ¡$ēĄě":12990,"**ÂĸăÂİÂľĀ":12991,"/ÂĨĂĚÂĸ.":12992,";Â¿ĕÂĵĞ":12993,"AÃĪÃŁkÃķQÃħTÃĥÃ¨":12994,"IisofBeyondfindAndthatcovers":12995,"IItIpoleof":12996,"KÃĳyÃ£KÃ¿":12997,"NÃµyÃ¯L":12998,"OÃĤÃĲÃ³Ãĸp":12999,"PÃ£CmÃ¶ReÃī":13000,"UÃ¡RÃ²Ã°jJ":13001,"XÃ¥Ã»LÃĿc":13002,"XÃ¿jÃ°Ã¬":13003,"]ğÂ´ēÂ¶Ĉ":13004,"dÃ¦Ã±lWÃļÃªÃļfx":13005,"eÃĵFÃĽHÃ©":13006,"eÃ±ÃģÃ§ÃĻÂª":13007,"hÃĶÃ¾Ãŀs":13008,"oÃĶZMÃıÃ´g":13009,"|ÂĶÂĮ+Ď@}":13010,"ćÂ¤ÂĨ*.":13011,"ĒĔÂļ,<Â·":13012,"ĘÂĶÂıĞ^":13013,"ĝĈÂ§Â·\\Â¸Ē;Ĉ":13014,"ĞÂŁ-Â¢Âģă":13015,"ĠÃ¼Ã³cDK":13016,"theshallheadmattersheadshade":13017,"thewhateverofamUnderbludgeoningsLooms":13018,"thewhateverchanceIamsoul":13019,"mestraittoamambludgeoningschargedBlack":13020,"mecoverswithofcaptainnot":13021,"memasterfrommenacescroll":13022,"ÃģÃ½Ã¼Ã°L":13023,"ÃģÃŀJÃĤHÃį":13024,"Â°ÂķĂć.Â®ą":13025,"Ã»ÃľÃİÃĵPFÃľ":13026,"Ã»Ã¿ÃĸÃ«ÃłAq":13027,"ÃĨTÃĬYoÃı":13028,"ÃĵyrÃĲES":13029,"Ã®ÂªÃĪÃ¬ÃĪÃ¼":13030,"Ã´ÃĤÃ´Whh":13031,"ÃĥÃ²LdÃ¸":13032,"ÂĨ*ÂĲÂ¬ĆÂŀÂģĕ#":13033,"ÃĩMIÃ¼Ã²":13034,"ÂĲ$ÂĴÂĩġÂĩ":13035,"ÂĵÂĨĞ^ÃĹ'":13036,"ÃªÃĪbÃ¯ÃļÃ©":13037,"ÃİkÃ´ÃĬÃĮÃºÃĮ":13038,"ÃĻÃŃiÃĬq":13039,"Ã³ÃĻrjJÃķbÃĦÃĽ":13040,"ÃĹÂ¿ÃĹÂĹąÂĭ":13041,"ÃĪÃ¬ÃĽÃ¦YSF":13042,"ÃłMÂµGUA":13043,"ÂĤġÂĳ-ÂĻ\"":13044,"Ã©ÃĦGÃĿÃ²":13045,"myBlackHorrormygodsoftheof":13046,"ÂĬĔÂį+ā":13047,"ÂļĘÂ¦(Âĥć":13048,"ÂļÂĸ&Âļ\\Âĺ^":13049,"ÂŃÂŀ=ġÂģ":13050,"andmethetheFindsAndchargedwhatever":13051,"straitplacepolethatmay":13052,"withamchargedcaptainyet":13053,"mattersandOutIIofandthe":13054,"shallthewhatevershade":13055,"whateverwithUnderFindsasofUnder":13056,"godsItHowmechancethethe":13057,"tostraitIheadwithnortheyet":13058,"theofbeInotpunishmentsgods":13059,"butheadIfindyetUndermy":13060,"Outamaspitthefrom":13061,"OutambludgeoningsMyclutch":13062,"$//Âģ%Ĉ":13063,"$ęĀĈÂĺÂ§":13064,"%Âĳ?#:Â±Ę":13065,"*ÂĮ/`Â¨Â¯ÂĿ":13066,"?ÂŃĒÂ«ěĆ":13067,"AÃĳiASÃ³":13068,"BFÃ»Ã¿Ã¿RÂºH":13069,"DLÃ¡Ã½Ãĵ":13070,"HÃĥÃĽVcx":13071,"IfromFindsHorrormenaceIFor":13072,"Iwhateverstraitbludgeonings":13073,"JeKÃĴÃ®Ã´":13074,"NÃĺÃŃKÃ¤Ã¡":13075,"OaÃĲVÃ«x":13076,"TqnÃ¹Ãºe":13077,"UjÃĢÃĪG":13078,"]ÂĬĆÂ¡đ":13079,"nÃĸÃģNÃ¶sÃĶÃłÃĦ":13080,"tÃ±Ã®ÃĸkÃ°ÃĶ":13081,"wÃ´SlÃĨÃħÃłu":13082,"wÃ©ÂºÃ¬yOueÃĴ":13083,"{ÂĻÂ«ė&\\":13084,"|Â®Â§ĞĕÂļ":13085,"ā?ĖÂĶÂ§ąÂ«<":13086,"ĂÂı#ÂŃ:ĜÂį":13087,"ĂÂĮĖ[Â©ÂĶ":13088,"ĂÂİ;$ĒĝÂį^":13089,"ąÂ®Â«ćÂ«ėÂ¨":13090,"đÂĬÂ¸ÂıÂ«ÂĴ":13091,"đďÂľÂįÂ¥Ė\\ÂŁ+~Â£":13092,"ĕĄÂĹÂĻÂĻÂīÂ®":13093,"ĝÂ¡Â©ÂĩĂ!Â®Âľ":13094,"ğÂ°ÂľÂģ]Ğ,>":13095,"ġ\"ĆÂĥĄ\\ąą":13096,"thecriedmaycaptainwhateverfromand":13097,"thetomattersmattersfellAndof":13098,"meHorrorthethethatstraitpitfate":13099,"isshallbutthathavefate":13100,"Â»Ē|Â¿ÂĬ@Â°":13101,"ÃĸÃ¶ÃĳÃįNÃ¹OyÃĲ":13102,"ÂºÃŀÃĩÃŁl":13103,"ÂĸÂ·Âı,ÂŁ/(":13104,"ÂľÂ»ğÂĪÂĮ:ÂĨğ":13105,"ÃħÃķÃĮÃ¤MÃ¡Ãĸug":13106,"ÃĬÃ¶ÃŁÂµÃ¾Ã£Ã´ÃĲT":13107,"ÂĲ!ęÂ©Â¢Â¯ÂĬ":13108,"Âĵ.ă<Â±ĐĖÂİÂĽğ":13109,"ÃĮÃ£Ã¥sÃ¾ÃĦ":13110,"Â§ÂİÂ¥%ęÂ®":13111,"Â·ÂĿÂķēăÂ»ć":13112,"Ã¸ÃħÃ¥HÃĬWXbyN":13113,"Â¢ÂĲĚ]{ÂľÂĿ/ÂĨĂĚÂĸ.":13114,"poleamthatnotmaytheunconquerable":13115,"notmasterUnderMythismasteryet":13116,"notmeofamofnorIpole":13117,"ammenacethenormypolefell":13118,"amofBeyondUnderamfindofof":13119,"andthankInnotyetofmy":13120,"andwraththatwithOut":13121,"andIthowcaptainnightpole":13122,"UnderOutofandthatItthealoud":13123,"captainthewrathhowLoomscriedpunishmentsI":13124,"captainthatheadmayOutmaythank":13125,"thatmattersshallclutchfromshall":13126,"thatthankyearsfromnightthesoul":13127,"howtearsAndclutchnormyILooms":13128,"howclutchthetheItbludgeoningsof":13129,"howpitheadtheofIwhateverI":13130,"mattershavetowithpolepole":13131,"withwiththeyetnorheadcoversthe":13132,"withwincedmaynotchargedAndfell":13133,"ofthethankyearshavecircumstancethethat":13134,"thankcircumstanceLoomstheOutofplace":13135,"thankFindsmattersBlackmattersmayofpit":13136,"menaceplacehavehowAndnotbludgeoningscovers":13137,"chargedUndertheplaceAndOutthe":13138,"wrathHowtearsnightwhatever":13139,"whateverplacewincedbutfindhowIclutch":13140,"thisthehowmastertheItmenace":13141}